BD27DA7B
3D1C7347
3CAC2F7F
3CB9A359
BD19FFFE
BD2D45C6
BD7FD5F8
BCAAE60D
3D48C2E6
3E0C276C
BC0C8999
BB8B4615
BD7956EF
BB8A4DD2
3D47D2C0
3D374BB1
BD8037F1
BDE76FD5
BDA28C29
3CD272D2
BDC318B7
3CD2291D
BD1241A7
BD04FDF7
3DA3FBE5
BD1763D6
3D88BA8A
3D9832FA
3CCD02AC
BD270465
BD795FB4
3C4CEECB
3D7E1546
BCE1590C
BE0EBA53
BE006EB0
BE118236
3D12963E
BDBA6779
BE56C370
3E003402
BC8D114E
BD5771CA
BCC2E79B
BD120FB8
3C2D0F5F
BDD2FFF4
BC70B961
BC2C8A30
BDEAC72C
BE3C2AD8
BEAB8EFD
BE2288E8
BE67F8F6
3D45C1B7
3DEEC1FF
BD169CCA
BD8C1477
3D8B6B71
3D61C8E2
3E47B52A
3E0C529E
3E57DAC4
BD422129
BD919EF4
3A23AC23
BCEE1381
BE9AD9D9
3D38B866
3E620E10
BC886623
3B1CE5E5
3B824E0D
3D31620C
3DAD734B
3EAF3000
3E93D77C
3D910709
3E0B7596
3E9516FC
3D7BE011
BE29D78C
BDFE229C
3DB962ED
3C3521CC
BD13B7A3
BCA0E1B6
BCFB6667
BD6A176E
3D9571D2
3DB61187
3E8E2479
3EA826DA
3DB88304
3DA23DC5
BD98B8AF
3CFC7B5A
BC6F80FF
3CB59BA2
3CE7195C
3DADE4EE
3E841205
3E85F1DE
3E7E48BE
3E96B8C4
3EBFCD24
3E8AC1DA
3CC70C19
3DCA3726
BD2CD0F7
3E08FFB4
BD247639
BD71D3CE
3BE02E47
3D91CD6D
3E0BF995
3E7A5E35
3DB6157F
BCA8299D
3D3F0AA0
3D8EAD02
3DFDEF63
3DCD4576
3CB46147
3E14E453
3C9661AB
BD7D912F
BD3C0097
3D473B75
3E36346B
3DB22217
BE02C2D8
BD82557B
3D409278
3D46F035
BDAFCE87
BD526EFE
BC287AB6
3CF32226
3C533588
BC633A63
3C8ED565
BCA53DB2
3DD25D9E
3CB79E58
3DCCB7D9
BDA50A5C
3D18B18E
BD484F2F
BE38CB47
BCE88CD8
BB3A59BC
3D840092
3CCB4535
BCD27F82
BBD60B22
3D4E39C4
BBE47DF2
3D757E1B
3CB7EA99
BD1B2B15
BE0806F0
BE56798F
BE918D48
BDB35332
BCB478E2
BC91A726
3D97918A
3D489C4A
BBD00AF0
BD9A5C30
BD0301DB
BD711B67
BD7334A7
3D003CEF
BD65F67B
BDA357B1
BBDB12F1
BB9DD320
BCDB88B2
3CA27012
BCC52971
3AAE4AD3
BD049262
BB44CC8B
BC7F94F3
3CAF33C0
BD75E581
BD8DC76A
3CA397D3
3D22DCC5
BCFE4EC2
3A1CD4C3
BDE92443
BD79891D
3C26A217
BB81C559
BD52B6C4
3CBCB7CA
BD4F2C6B
BD41AF63
3B1B3D33
BC38B830
BD2397F5
3C0B74BF
3D341A44
3C50D97D
BD2E9800
BCA01634
3D3F3837
3D538C78
BBFCFD6C
BBD5714A
BCCDF0FC
BD321797
BC6F0CBC
BC99F3ED
BD395099
3D08B30D
3D3C9941
3D10C1E1
3D13E465
BD0AFFC6
BD5A9219
BB786081
3D3D689A
BD96894E
BDCCBBF9
BDD45829
BE1A0DF9
BDAD330E
3DEA7143
3D83C873
3DD02095
3E04BBFD
3DA40474
3D13A5A9
BD401EBB
BA886ABA
BD7BCA76
BDE18B6F
BDE3E857
BD9CB674
BE2FDE77
3DA454DE
3EA84FE3
3ED701D5
3ECF0530
3E9000C3
3E978FBB
3E7A8C93
3D3F4EDB
BD653A81
BDABBACA
BDDDD21F
BE0655DA
BE361974
BE57869D
BC6068E1
3E96FC52
3E9E459C
3EDE31CB
3F060B35
3E6A9F33
3E95BE15
3E289204
3D342269
BD7A977A
BD9C793A
BCCD9ACC
BDDEC1CA
BC74E9B7
BC0BE553
3DCD4E2C
3E13BD5A
3E1860FD
3E152AEB
3E5C7C78
3EB38332
3E15024B
3D01E211
BD2CFF82
BD267AA8
3CCDAD2D
3CDE310C
BD274DFF
BD4F1764
3E3564C4
3E2D6CA1
3D6ABD90
3B8079DA
3BED9877
3DEFEAB8
BCA9D514
3C85066C
3D8B6ECB
3E3D6AAF
3ECF7CCE
3E1E8A25
3E1EE55C
3E7E0543
3E372AC8
3DCD4A87
BDC5CE10
BE04860C
BE0F1FE4
BD4DC7FD
BD598DB8
3C159122
3DBE8F98
3E0B9E60
3E02FD48
3E8C5803
3E7E06CE
3D77D344
3BC3ED1F
BD1685FF
BE1BF0F6
BE2F30C7
BE0D02FA
BD9506D4
BD5E9240
BD219F80
3D68FE14
3D7F94BF
3E0F3D68
3D8FC5AD
3E388941
3C2E0DB3
3D1618F8
BE2FD679
BDF43BE8
BDADED6F
BDB9515E
BCB96B2F
3C2C6B45
BCCAF540
BD472C14
3CFC8EE8
3DFD05D3
3E1E984D
3E516278
BD7B8FD2
3C8E30F9
BD137C2B
BD41E89E
BD457D76
BCF0BA1C
BD20FF29
3C8096EE
3C77CED1
BC265496
3D0A26FA
BD749F08
3CBA8009
3E11B4E1
3D4F5F38
3C9CC34D
3DA39FD4
BC20CFAB
BD27A0FD
3D8AA8FA
3D247B11
BCFD4F30
BCE717AB
3D4A2CC3
3D382714
BD10B982
3E079799
3DDCF656
3DA69B79
3DCC7226
3DAFD736
BB861854
BC91A2BB
3D73B75D
3D6ACE7A
3CDB1DEE
3C6AD9F8
3CA5E206
BD76955A
BD858336
BD95692D
3C69F7BA
3DCEA6D0
3E086033
3D9EDD56
3DFA2070
3D1EFC09
3D13B3CD
3BA2204D
3D06B2DA
BD36CF4B
BCE16D34
BCAD0064
3D78B0FA
3D0DD74C
3D55211E
BD65622C
3CAA02A2
BCFC0690
BD159DC4
BD48065C
BCEE6435
3D2E7861
BCBB0780
BD12F7DB
BD3DE7F2
BCE1F095
3D3937AC
3D1D56EF
3AC92DDD
BD8A17EE
3D8BFB7C
BB0A633A
3DF17105
BD9D0AF9
3D4FB361
3D7EE7AF
BCDFECA5
BD2FF487
BD3A95FE
BDC50E43
BDDD8DC6
3D80EBA3
BD94B181
BD7BB43E
37C261A0
3DD696B2
3E015C5B
3D37897F
BCB8E907
3E0217B0
BC61F6AA
3D544AA6
3C9CDFBE
BDC22E91
BC4741F4
3BF1FD11
3D0F2219
3DB8E93C
BC78B594
3CC49FFD
3D8D6DE9
3DAF3415
3C702A00
3E182A69
3DCDA260
3D5AEEFD
BCCCA3FE
BD3A241D
3D7C1C66
3E098F63
3D07E696
BC1A2CA8
BE588301
BE53E098
BDBC7378
BDF8E780
BCE3058E
3EB6C8C0
3DC704DC
3D35D875
BC3B3B12
BC94D901
BCE94261
3E0256C6
3E046416
3D9B9E0A
BE21693B
BE95139E
BE5BACA9
BE443A31
BDBDFCFA
3E4169F5
BC86E398
3C9319CB
3CF63ABF
BC73CD43
3C27E191
3D10470A
3E36D463
3DD24554
BC0F5078
BEC760B2
BEBB6926
BE732418
BE90F90F
BDAA26B0
BC0FB937
BCAEF0D6
BBE69871
BCECE450
BDBE64B8
BE460F85
BCF109D2
BC067985
BE06F570
BE8647F1
BE2E2A29
BB35F72A
BE00ADAA
BD8CF9BA
BD6916AB
BA80AF4C
BCED620E
BD8E4269
BE4037D9
BE80D4E5
BD80BE5E
BD87B84F
BDC50757
BE18BAB0
3D5D5D0B
3B96086C
3C4BD234
3CA76F69
BC292973
3D68FA92
BC2CD331
BDCDA5D3
BD276400
BDCDC4C1
BE049E75
BD36E448
BD081329
3DCB8B99
3E2F39C6
3D1F8E00
3DA85269
3DE67CD9
3D66EE18
3D533BE9
BD5588BC
3D076876
3C4FDEFD
3DF20523
3E3A614A
3E559DF6
3E83AB1C
3D23A15B
3E7D061A
3DE220F2
3E5A9F62
3D35DBE3
3D7E81E5
3D19915B
BD5D37BC
BD837E9C
BD5DF4C4
3DE4865C
3E29679B
3E92439A
3DEFACC6
3DC782DC
3D704F80
3CAEE15C
3E1EBB6C
3B2C1641
BD4034D1
3D5C0F02
BD31B8B2
BD0E90A8
BDB3301F
BD2EF853
3DAD9600
3E0D802F
3DBCD49E
3D728A8F
3D5C03E5
BCA31F87
BC9C82F3
3D50D781
3CB9B73B
BAA1A020
BB80E716
3BFC3437
BD459A1C
BB183558
BD0650BB
BD0912B9
3D4BD121
BA84E3C5
BCA32564
3B6A6C6E
BC320C66
3CFC2BA8
3D0BCE63
BCC72A96
BD6F1B6D
3D212E7F
BD21B609
3CACFC29
BD132D79
3CEC27B2
3C6878CC
BD3405F3
BC320522
3CB11CBE
BC55E964
BCCF8428
3AD3F420
BBBD354E
BD608991
3CB4B65D
3D3E25F2
BC44F078
BD930FDD
BDAAC9D5
BDA32E36
BC9EA235
3C8C5E99
BC92FAE0
3D25628F
BD69F877
3D5E160C
BCCF475A
BD6EB7ED
BD572524
BDD1D6E1
BDF70B73
BDE25F36
BD8F48A5
3D9093B1
BD340848
BE1A79D2
BBE59AC6
3DD732F7
3CBE686F
3CFB7709
3C902D0F
3CB9BC89
BDA5BB2B
BD314EDB
3D6EA8D7
3E0CBE69
BB8AAC3C
3E57EC72
3D4CE1A7
BDCFFC75
BD8B2364
BCB5D175
3DFDC73B
3D8B4F1B
BD15B0B5
BD333487
BDB72EA1
BD2253AA
3C0BE9FE
3E339CBD
BA9ADC03
3E25CA87
3E67B300
3C882627
3DA7A5B4
3D551A2F
3E8F1379
3D8348D3
3CBC8F5B
BB9FD27D
BD27BB42
3D6646B0
3D2AC5B9
3DC4C67D
3D5AA959
3E64A75C
3E945D47
3E190551
3DF256D6
3E64BE59
3EC3A525
3D21AF43
3CD6588C
3BEC8D41
3CEFEE8F
3E27ED2D
3DA4F7F3
3CE06F24
3D0F6931
3E0BAC1E
3E6CCAA4
3E2EBD51
3D123A86
BD64C6B6
3D49A7CD
3C9E4F46
3D0200AA
3DCE4562
3DD161DE
3E607478
3D973A59
3CD684C9
3BE98402
3C298F7A
3D8CADB2
BCFF4741
BDE7F1AC
BD9B2677
BE025C7F
3D0A1E55
BC8500AE
3BEDFFA3
3D1CB064
3DDD833F
3E1F19E5
3E48D4D4
3C8CF50F
BDA42EE6
3D96EF92
BD1E0AA8
BD487DFA
BD5723F4
BC1D6425
BD0E98E0
BD3E59F2
3C8C1838
3D8F3A94
3DFD233A
BD6CA50D
BD8E9041
BDAFBF7E
BE1ED3A1
BD517361
3CC6E601
BD858C7A
BC14F130
BB3BF880
BCDA7E65
BC5C3043
BD9B9E1D
3D5499A6
3BBFDCE6
BD6140EA
3D6B08B5
BDAFBC76
BD708A22
3D525099
3D24161D
3CC6B827
3D3815BB
3D778779
3D3D918D
BD0938AF
3D09067C
BB039B76
BD12DD84
BD6BD72A
3DCA366C
3C09A519
3D82EE4C
BD6B2AE0
BDE1751E
3D4805FE
3E039B04
3D611CBD
3D429E46
BD56C642
BCAE807E
BD3EE4A7
3C531F48
3DF61776
3DE16B3D
3DD0B88D
3D4CAB03
3DBE66F3
3B4E2A06
3D37D167
3D0FB73A
3D115DFB
BBACB565
3D249C33
BBAC136B
BD61682F
BDBE9903
BC8A4752
3C88C758
3CDF7C57
3DBC6DE0
3E17671A
3DD06400
3D3B3D0D
3D2C37EA
3D67B4BE
BC2CC03D
BCDE61A5
3D4ADD05
BABCC1DB
BC48E01A
BD352D3D
BBAE06DD
BD931F21
BC9EAB50
3DEE64C4
3D9037A3
BADDAF37
BC91BCA2
3C8C6ADE
3D61A9FE
BD039967
3CFCCFF1
3C39DEEF
3B7F9D2F
BD285968
3D9DF936
3D28880B
3DA20802
3DF66CFA
3E1D184E
BD936DB7
3DFF747C
3DAAABC3
BCBE5A0D
BCBABF6F
BCD47A0F
BD872A74
BD239FE8
BE3A7613
BE161ABF
3C1465A6
BB99BD52
3E130261
3DAF6558
3CB10084
3DA54AD6
3E253CB3
3CE31D0B
BC0B9547
BE0EA216
BD712379
BD209706
BE249AB8
BE492178
3D8262FB
3E0EBA7C
3E53A3E6
3EA38FF4
3EE86BC9
3E0B2772
3E8345E5
3D16FD80
BD149661
BD7EB0DA
BDBB68A3
BE3A5ACE
BEAE4D2C
BE932504
BDECBA05
3DB8C8E3
3E5F8458
3EEAFC11
3EB59C0B
3E8A63CD
3EE0E605
3D5BE7D8
3D2C0E93
BD69225B
BE5535CA
BEB1DAD2
BEA0B737
BE331522
BCA678AF
3D63AC7C
3E08AA9B
3E00B58C
3DC5E9B8
3DBF30BB
3D004BCF
3D9B4541
BD500169
BD861352
BEAFAED7
BE418D97
BE8F1621
BDF6595C
3DB6A0FB
3E54FC7C
3AD265B8
3C87C650
BCBBA74E
3DD8B3A3
3DE519C6
BD12C4DB
3CD207D0
3C84FB65
3E0F51E1
3D977692
BE65A3CC
BE7BC211
BC8C4C1B
3D50D53E
BD269A75
BDB66C86
3DB7D765
3CF92105
BCACA3B0
BD41B347
3D3535B7
3D15C0EC
3EA27E84
3E5C439C
BD35FB47
3E6EAE4F
3DE7AE1A
3E401D3B
3D1DADB4
BE2FEF45
BD8C644D
BDA9AAA0
3D6093F3
3D5FC8F8
3D582259
3B04105B
3DF75BA4
3E221FA0
3E88522A
3E994B8B
3DD6256D
BD385F4E
3DBC013C
BDC6B112
BD340FDA
BD38D820
BDA38242
BCA56EEF
BC7FD3A7
BD677808
3E3F6974
3E7EE766
3E7B23FA
3E0A3EDB
3DE773AF
3E062EBD
3DDE1892
3E502E45
BD0D904A
3B86915F
BD48E48A
3D195D55
BD577C0F
BCDAAE4E
3D292D1C
3E212E5D
3E9101E8
3E4E13A6
3E0792E9
3E0922B7
3E5D61C0
3C9C19A0
3C92315D
BD057180
BCEFF6D2
3CF4DA2A
BC673CBF
3D1C32AC
BDB2C30E
BD85AD55
3D7F610E
3E65FC20
3E9496DC
3E5DB99D
3E4122C5
3D0F2623
BD72D1F7
BCE6E5AB
3CD9AFFB
BD245AE3
3CC0303E
3CF8A77B
3D64DDAC
BD853A3D
3CB148A4
BCAA7390
3C307C5B
3CAE032F
3CFA09C2
BC8C48A7
3B580F4A
3BDCB5EC
BCEC2808
BCFBAB17
BD1242F3
3BF5474B
3BE88F8F
BCF16CA3
3C308923
3C9350EC
3D1B08E8
3B9AEDE4
3D57DA5F
BC7BF084
3D6A2ABD
3D1CEFCF
3CCD0041
BC660D36
BC040552
BD1CE254
BD4D5915
BCB9FB4D
3D2B589E
BB9154D5
BD4FE01D
3D6288A1
BD765A97
3D3F4191
3D330739
BCB21051
BD2AA8B5
BD241B5B
3D4F8D37
BD790301
BC412EAA
BC0C4D21
BC281BAD
BDBE0CFE
BB9BD909
3D240EF3
3CC82D65
3CEC8153
3CB5212A
3D64DA76
BB8F78F1
BCD3B389
3CAD6FDB
BCF6C761
3D650485
BD361DDE
BBCEB3FF
3D06457F
3A896C55
3D19E4EC
BD8E5FE8
BD272311
BB145C4C
3D019A30
3CF75805
3C858F7A
BD4DD92A
3D44AF03
3D45640F
3CA50D46
3D3724C9
BAB70750
3CC4C0C9
BD56A61C
BB9A1D67
BBC316D3
3CD96D94
3D5EC2C2
3D060C11
3C6FDE6F
BD5C818D
3B9FCCBC
3D49D2F0
3CE08666
3BED2B9D
3C8FC5B2
BC94FCC5
BDAEB119
BDAE9455
BDA7658D
BD426F2F
BD2FD061
BC3EA4ED
BCF0BDC1
3D4D863D
BCA6E037
BCF2EDE2
BC1B8078
3D38A41F
BD684F99
BD903A98
BD6137BB
BDC94443
BCB20CCB
BDCCF1E2
3D012B98
3C498D57
3C826E9B
3D5EC59C
3CC9D13F
BC9B3A9B
BCA3DF2C
3AA2185B
BC4E4BE0
BCAA8EA4
3CB56704
BCD99C00
BDA1EAE3
3CFA15BC
BD3A1CDB
BB52BBBE
3CB3D3F3
BCD6AD01
3C8F8F10
BD4C482B
3BA7BFA3
3DA1AA7C
BCE3B2F2
BD6C2BE8
BCC7B224
BD3EA406
3D760482
BD00A190
3CA59F8B
BD7183A2
BC107A67
3C879CB6
BC02CA07
3D8AED14
3D5C706F
3C84624C
3D07406F
3D86537E
BD4C48B9
3D20ED47
BCE50B0E
BD00B0DB
BD5E01BD
3D0AA639
3BF200BE
BD6801FA
3CE37363
BD16B1CD
3D0A96DC
3C74207A
3D3FE520
3D0B6101
BC90343D
BD8699C4
3A26BDA4
3CB4DEA4
3D6AF012
3C66F8A3
3AD230B3
3D71C204
3D7B0DE3
BD5149F1
3D4A6EAD
3D2DA846
BD19A2FB
3D7B907F
3C40D6EC
3CF00DF5
BD70DC8E
BC709849
BC12B3DD
3D775D63
BC78DC0C
3D2BF2EA
BD11F5B7
3C97A74C
3D55F520
3CE3B731
3C925FFC
3D28F8FD
BCE87D7E
3D151E41
3C809AAE
BB673CDE
3B062495
3D0AE92D
3C9B39AA
BCDF589B
BCAD6A2F
3D0C74A6
BCDCF5F0
BBBE407C
3CE25779
BD119E48
BD294463
3CCDED01
3D778340
3C09C7C0
3C837B2B
BCF0B752
BD75572D
3D141E56
3CB99C3B
3D0F4724
BBFD5C61
BD832E2F
BD1EC15F
3D525BC6
BD4698D2
3CD6C1B5
3C70FE3F
BA7615BB
3C0C2C77
3C52E883
BD0564DD
BB7BA114
3C8F616F
3CCDE9FA
BD756F6E
BD36A8C2
3D05A249
BD41E7C2
BA8B8074
BC274893
BD4D0F6C
B9EDD33E
3D398767
BD8822C1
3CF619A1
BD114284
3C67FD0B
BDCE4A15
BD920E99
BB714EC9
BD0D6C3F
BDA938A4
BD0B7C1F
BD0AC667
BD031FE3
BD8C0103
BCB10676
3C0FC4A7
BD6954FE
3B85B97B
BD348DE3
BCDD4D70
BCC30AF0
BD834EC7
BC28B78D
BDA75F0A
3D8B2399
3D7C6A23
3C4EAC57
BDDA551B
BCCFD8A4
BD4F8E4B
BD99F16A
BCDEB557
BE03B0A2
3C8E53B7
BD58DC30
3D1DDD78
BBE14DD3
3D811B98
3DC0B9A8
3D52C371
BCBC3939
BD9FD29C
BCAF4024
BD951A51
BC8651BE
BD160C7B
BC7CBD10
BD96FE1C
3CD271D0
3CB8A66D
3D94AAFA
3DA6A7F3
3E35CF1A
3E276A03
3D3F6A77
BCD3EBEF
BD02D508
BD9DC754
B82D3A68
3B7B0B9A
3BE6C747
3D18DAB7
BD351151
BD92F7F9
BE282215
3D99B94C
3E4341C6
3E33B8AC
3DF5A514
3DD7C0C5
BC2D739F
3D4F920D
BCFBB977
3D2B3161
3D0AE24B
3DB2EA39
3DEA7392
3D776366
3DD385E8
3B8A7CFA
3D419602
3DBFA85C
3E1262EA
3E1FE32C
3D50E782
3A8493E5
3C3DF3DB
3C97BEA7
3C9E3E8F
3CDA6146
3D6D1874
3E5B3C82
3DFE2771
3D835734
BD5EA640
3D919501
3D919294
3DA53235
3C34BB2B
BC3A1AF3
BBFDC1D9
3D1628F0
BD407E22
BD20BC20
3E1F1DE4
3E5E7C5E
3DB4F298
3DC1270C
3D497051
3D4036E4
3E112FEC
BC012BAF
3C14BA0C
BD3403A8
BC9F0560
3D5BB8B5
BD0D3A80
3D9AE1FF
3D9492EC
BD67F4CB
BC295EE2
3CF43AD7
3D7AE831
3CA8EC23
BDC1526F
BC1C630A
BDA28D39
3D340FD3
BD306897
3D11193C
3D0518F2
BD58BD4B
3C9C0254
3D9015BA
3DA2563F
3CFC638F
BD09A1BB
BD88D8C0
BD6B7FD4
3CF553E0
BD0C6C1D
BDA675D6
3D21F4D0
BCE6C286
3D92B34A
3C7D09EA
BBF0BFF0
3D7876A3
BD9A8924
BDBC991E
BE1B1459
BDB978CE
BE480524
BC8050CE
3D4EB2DC
BCA1E53A
BCFE01A2
3C6EF889
3C7AF240
BD72119A
BD9279D8
3D1F44A7
3CEEB754
3ACEDA6E
3D12D4FA
3CD1852A
BD3B8348
3D00CE73
3C99D529
3CED0BA9
BC91BA7B
3D4FE0D9
BD16871F
BD1A5D6A
3C999CED
BBF4B142
BD5368C9
3D4D2E2D
3A6EC4CD
BBF71B40
3C8B8D6B
3D2F3218
BCE833F2
BC413CE1
3C17FF4C
3D6D17DA
3D100D1A
BD4820B0
3CE75BA6
BD6A99AA
BD6F842E
BCE38B9F
3D9B030D
3DE64BAE
3DD360E9
BD7329FD
3D142FE0
BCBC1868
BCFC6B12
3AFD830D
BDB2C127
BCCF5490
BCDA521E
BD448D19
BD5C8FC8
BD28FA6D
BD4A34EA
3DECB9DD
3E0E7B3D
3D9A5C68
3E40D8C3
BC896E0F
BD3170FE
BD4B301C
BD90C8A5
BCAFFBD0
3D9420C4
3CC8635D
BD20A29B
BD3E9676
BE56EC85
BE9A6709
BEEB3005
BE720D0B
BCFF4E61
3DB388CC
3CAF6840
BD6DBCD9
BE069D53
3CECA8D3
3E12BB07
BD0D8C6E
3D72CE33
BD1EBCB8
BEABF26F
BF28C043
BF833B74
BF34A80D
BEA1F5EC
3D2A6A5F
3D8C477E
399563EF
3D919826
3DBF2F1D
3D0C50B5
3D37EF95
3D112678
BDC7A96A
BEFD70C8
BF3F68F6
BF5E10F5
BF370B7D
BF00A7D5
3DB14944
3D20772F
3D274F79
BD2DE467
BE0E9E31
3D02797C
3B9C9332
3DE4D6AC
3D28E2C7
BE76B437
BEBE5FBC
BEB545C1
BECB66CE
BED85000
3C62DE2F
BD6C9DC3
BC907E86
3D462EAF
BE49DE63
BD0AAD9B
BE1A8AC4
3D836EEC
3D6DA13E
BD4E3B86
BE01A84B
BE37101B
BE233309
BCC5DF6D
3BD83009
3CA007BE
BD1B9DAF
BC79B72A
BD87FA03
BE75414E
BDA2A13E
BE34E8DE
BDF3BFE2
BD8D7B50
BDBF3AD7
BD59FD16
3D7BB916
3DE217C9
BCF1F0DE
3CD84B23
3D7A89E3
BD846169
BD63C5ED
BE9957C7
BEA30E66
BE90FBB6
BE19EF2B
3CE68FB8
3D8D3BB9
3E17F32D
3D9F67DD
3E109AA8
BC967B2F
BD71AF26
BD39761E
BCC623D6
BE2444C3
BE5EE538
BE700D11
BE725AA8
BD8107D0
3DA6D0C0
BBBC670F
3E0CAC95
3E41C60F
3E326C22
3C01F238
BB2F4D8B
BD4E8F87
BBB8277A
BE435221
BE250BA0
BD0D6468
BE3C8931
BE11FD34
3E27C500
BBEF8B05
3D6B7940
3DF4EBFE
3DB9AB93
3CEC2A79
3D3D68B5
3D718526
BC35F500
BDD65989
BD50B928
3CBD511F
3C54A358
BDAEC4B3
3D4D3C7D
3CAB5F52
BB8820DD
BD83BF75
3CDBCDF9
3CDE1E09
3D61FCFA
BCE931D2
BC333AF2
BCBC5CF5
3C8573B7
3CB564D0
3D8A4769
BDE9A5CE
3C0EA04F
BD87BBCC
BD82FB0E
BDDFFE15
BD313FE5
BC67786C
BD18371A
