3CBE8F65
BD01ED15
BD5C1A45
3BC02719
BB9601C3
3D05E285
BB4AD6A5
BCE41C33
3CEDC1B1
BD5FC9FC
3C71D1B8
BC911479
3C08E0ED
3CB33713
3D039176
BC6A1085
3D478045
3CFB9AD4
3C641636
BDCC1A98
3D6D2EDB
3D3C39C7
3D064D59
3D149B03
3B08DBD7
BD7A8017
3C050676
BD11B932
BCC1916B
BD465124
3B690672
BE1E3327
BDD3691C
BE40B344
BDD5EA26
BD26DB18
3D668EF0
3D004ADA
3D7CC137
BD449082
BD980AB6
BBFB27FA
BC866A70
3D22578C
BD7212C3
BE4536BF
BED76126
BEEDCF22
BD82156E
3E493003
3E39EBAF
3E016438
3C457DA6
3E0FC58E
BC4F05D2
BDA93392
BD6F4445
BB1E0DB1
BDCBA132
BE95E9F4
BE6DB6D1
BE8510AC
BCBD38B9
3E163027
3E614B48
3E5540F6
3E37A310
3D8D765B
3B9ADA8C
3D3E8AD0
3B6172F8
3C988A51
BB64713E
BCFD4158
3CC20DFC
3DE29443
3D253EBE
BEA1EA20
BD9E3938
3DA34497
3D6B92E3
3E1ABE02
3E273C2E
BC71B4FC
3B6A13EF
BD7974EA
3D2CBF38
3E445B86
3E88E64B
3E41CFD3
3D2E2781
BE4F31D9
3D612498
BDE6330B
BDDAF156
BC44C509
BE0B0944
BBD1714D
B9A04386
3CCF500F
3DC77A57
3DFF9A12
3E44A4AA
3E568B0C
3DC1331D
BE619ED0
BE1DC42D
BE973C67
BE24FACF
BDB74DA9
BDC9AE31
BC8C9F30
3D345976
3CCC7993
3D5597B9
3E31BA74
3E1DA744
3E8A816F
3D3D1E77
BA07AF32
BE910A2D
BEEAA2E6
BE1D2961
BD69B7E9
BB1B492B
BD644086
3D4936E6
BD11F587
BD52D05F
3A45FC24
3E1D92BB
BDF3F4B6
BD9849C3
BE4BA64C
BE42316F
BD3A3654
3E3D791F
3D806F6B
3DDF32DE
3DAA1A5D
3D25BD45
BD6A3646
3D02EE95
BC8F87E8
3DF4A211
BAD38343
3D574BD2
3DCB1A5F
BE25F6B5
BE0B9488
BDBF09F5
3CD4D8CD
3C77CC39
3D8CAE06
3D793472
BD83161A
BCEEB812
BC4AB439
BE098071
BE0DBCF5
BCF343A8
3CF28E07
3D948D7B
3E13897F
3D7140E9
3DDB6387
3E13639C
3D6D2357
BC7DFDAA
3B7746CC
BCE6352B
BD1087DD
3D2C82CE
3D957DED
3E04F18C
3E3C46D9
3E5FCE52
3E0CCDB2
3D81F22E
3D2942A9
3D153FEF
3B210E74
BC6F070E
BD6DB4E6
3AAEC66E
3D5CCB99
3D2E2AEF
3D6CF5C0
3C171F4F
BCCD1B33
BD45C041
3DADF753
3D6F09D2
3D61DC08
BD489A47
BCC3C963
BC7E9F4D
BD122880
BCC7C27C
3D6D925A
BD411684
BC4FBF37
3D77C88F
3D4925DE
BD834A3A
3C9B0409
BC88C6DB
3CDA64FB
BC93EB4A
3D5ED0D1
BB518C60
BD63663C
BD5E5AF8
3C60375D
3D225CF1
BD150E99
BCF24E6D
BD4522A7
3CA74360
BD27489C
BD7A5555
3D14A13B
BCA2A706
BD0FD1A7
BD36A6F2
3D501C6C
3B3BCB51
3C85D8E6
BC0C2740
3BB21585
BDEA0E71
3D22568C
BC9B4AC1
3C17DFE6
BD28E6F9
BD591B3C
3C48FB5B
BD577082
3D535FD5
3D61FAAC
3CBCDCA8
BD2DD919
BBD2382A
3E8D57CA
3ED34FB6
3E57E96C
3EB3BF6B
3E1B5591
3D09B6CD
BDB0BCA7
BDCF1E0C
BD5EE18D
BD08572C
BD11661A
BC9E3147
BDE220C8
3E0EAF93
3DBB8EB8
3C91EB85
3D14FCF7
3E0BC1FC
3DA4D58D
3DB281F9
BCD03886
BDA7C68E
BCE2779B
BD02373A
BDA88ECE
BD8D82C1
3BE59444
BDC9216C
BE301175
BDBD374C
BB507AE2
3BD2DE0F
3DAE94D1
BDE7C954
BDC15B1C
BCB3B00E
3C7BB1E4
3CAA22BC
3DCD5C88
BD146ACE
BD4409D6
BE6CD637
3BB93B5E
3E30135F
3E45D8FB
BE4FADA9
BE33E03F
BE39F7BC
BDD1082F
3BF56DFF
3D0CFFC8
BC086E3F
3CC8E2D7
BC100F7D
BD254906
BE162153
3DCAD010
3EB62CFD
3E06F544
BDE4BF72
BE928D01
BD25D510
BDEF8B2D
BE197DF2
BC7DD2FD
3D027A82
3CBFB6EF
3B9528D4
BE0B4DD2
BDF0BF4D
3ECB36A7
3EDD660C
BE0E8E4C
BC7F4BC3
BE3CAF6B
BE27BC1F
BDB88130
BDA9E6FB
BD727E16
BD289124
BC02637E
BDB36E1E
3E2220C1
3E3B12C5
3E2BF866
3E93B535
3E1CC6B4
BE27C0E3
BE1EE293
BDE12E87
BD83B2D6
BDB2305B
3C0CF0FC
BA9570A6
BD10F968
BDD6DC5F
BCFDB92D
3E5FDFAC
3EA01DCB
3E087EEB
BE50FC7A
BE9DE3A4
BDD8CD7A
BDC12476
BD0DE2F2
3C825AB5
3D6957D0
3C19DDD9
BDB18605
BD5E13C7
BD629E07
BD8C5941
BE02076D
BE0968B7
BD421FCA
BD76F99E
BDCBD72F
BE248736
BAF6175D
3D456942
3CFFF757
BD0E3718
3D07CFFA
3CD1E5DE
394245C3
BE0B511B
BD221DFF
BE10FAAD
BDD10F77
BE27E310
BCFE73E0
3CD96136
3DA05AC6
3D632046
3D014E39
3D4083E7
3C3B0302
3DA5B6DB
3D97A796
3E119431
3DC39479
BC5CF217
BD528704
BCF395BF
3D5FCA42
3E192216
BC8EE03D
BD3F1AC5
BD5D354D
3CA24486
BC5F46BC
BC8C1B91
BD189F04
3CE48CC5
BD2056DC
3C2DC104
3CBDCBBF
BBFE8FCB
BC07FFA3
BD190667
3D348288
BCF09C63
3D105DAD
BC480D74
3C23168A
BD0A33E0
BD52A2B5
BCF4BC75
3C3E8105
BB89D773
BB3AF078
3BE560C7
3B211BE5
BD4E11CE
3B585A04
BD4BDB00
BCE20849
BD3C9746
BBBF318A
3CFFB362
BCACE053
3D7A8BF0
3E43BC00
3DD0D821
BD047A97
3DBB6E2C
BD7410DD
BC934ADE
BDF50CAE
BD3ED243
3D6AA229
BBFC0610
3D030A3E
BCC36A53
3D77AF7B
3E3274F3
3E7CD409
3DB123F2
3E0AA9FE
3C15E7A8
3ACDE2D3
3D17152F
3B00C031
BDE6B8FF
BC65D976
3D24DB73
BD8F7394
BCFA794B
3DD561C0
3D94D14C
3DB373AF
3DDDB4A5
3DC6F0C6
3CDB412F
BBE0B2DF
3D99DBF0
3D6CE082
3B879CAE
3B2BED6F
BC948342
BC606273
3D54E4ED
3D88E64A
BD56B112
3C2FE960
3D8F4DAF
3CC875CC
3D9A3132
3CF24D0C
3CF8230E
3DCA2CC5
BD097EFA
BD18AA1F
BB8C0A61
BCBD9BC7
3DBB04BE
3CC914B1
BE22F708
BDF826DD
BE6F7C6A
3E5AD921
3EA980F5
3E6A6DDF
3E5977B5
3E26E3CC
BD1854DE
3C741CF6
BD7B8C3C
3D5D1E83
3D92616A
BDABDDA5
BDE1F816
BC851D4C
3DE2DC55
3E4A014C
3EC1CEF0
3E58F6E0
3E8C24F9
BD512DD3
BD92AF2C
BC373408
3CA14CC2
3A1A7412
BD60B4AC
BDBA2107
BE281B5B
3D478B71
BE17DE0B
BDAFE1E9
3DE4939F
BDB3EAB4
3B6231F4
BDF4C7B5
BE03694F
3CBB5654
BCF43953
BCFEF042
BDE9DFF9
BDD6ABEE
BC291880
3D6C54F7
3CB04864
BDA6D174
BE482041
BDDFE925
BCF8DD0C
BE40B6E7
3D08220D
BD4B58E9
3D56FD4A
3C26DC75
BC96DF80
BE03B9FF
BDB21779
BD673816
BDE449BE
BEA190B8
BDAB5012
BDF2FE6C
BDE05089
BD8C458D
3D2BAD77
BBD951A6
3D684833
3BB27554
BCD415F6
BCE323AE
BC92C26C
3DB2DB2E
BD9E1D43
BE1B3FD2
BD5BE990
BDC806DF
3D7E77BF
3DE196C4
3C0B28CF
3D2B40C2
3BABFEF6
3BA0A09B
BD829C5F
3D33FC6B
3CAD7342
3B317DBB
BD8ED125
BD7E044B
BCE1C550
3CB970DC
3E1C736F
3D5EFD54
3CF6205D
BC95C0BE
3D43E329
BC703618
BD033688
3CED74CF
3CD144B7
3B644FEA
BCC19DD7
3E0392D4
3D462DF0
BC316C09
3D99CD5C
BD85A3E4
BBE965E7
BC943B68
BCBDE1A6
BD58BB52
BB9922EC
3AB2E3F7
3D17324D
3D1FE6BD
BD7C3A07
BD0C43EB
BCE0B267
3CA767CB
BCDFF67D
3D5434D9
BD2FD1D0
3D47498F
3D3FDEE1
BD57A072
BCAC1F9A
3D608E19
3D659E32
BD39C7F0
BCCC8788
BD825092
3CE99374
3D37B806
BCF23A77
3D79F2B1
3C60010F
3D5DE2D0
3D2643B1
3A34FC28
BB6C2442
3D272A43
BDDFE69C
BDD157B9
BD9AE48B
BD8DA377
3C740F00
BE04AA80
BD341FBC
BD8D2C97
BCEAEC72
3D1166E0
BD49E326
BD0D64BD
3B916CF2
BE214EC2
BD2E4C5D
3DA2E0A6
3E607A5E
3E5B8D78
3E9BC225
3EC3D047
3E20BD18
BDE2875E
BDA1BE33
BCE3EB5E
3C224FD8
BD21AE65
BDCFA08E
BDA9F32B
BDC3ABC1
3D993751
3E94CAF3
3EB4F2F7
3DE7DBC4
3DBAB0F2
3E86D809
3C8FCC51
BE2FB629
3C8E2355
BD92075D
BD93403A
BDF154A2
3DF4EDA8
3C43BF51
3DED8685
3DD3590A
3C6B9907
3CF39CF1
3E17B8DC
3BB5100E
BD47CBA0
BDAFDCD4
BC349177
3C91A59F
3D4C40BF
3CF61939
3DFB82D8
3E00FCED
3E9D9A36
3DA1B377
3E5DA97C
3D0E908F
BDD206C7
BDA5BDE7
BD0CFD74
BD46065A
3CBEA154
3D547A0B
3CB80F7D
3D206424
3D8C5E97
3E6F98A1
3E9A9A8A
3D575862
3EBAF8A5
BDC88390
BDDB2C1D
BD907D10
BE1AF1E5
BD4B2CA4
BD851252
BCDE2101
BD529DB7
3D9CB3ED
BC192CF8
3E2A81CA
3E82E319
3E87FD23
BDF658B0
BB8AE3BD
BDC8AF89
BE2DBE0B
BDB69509
BD79CBA2
3C899A86
BD1AB7B1
BDD020E0
BE07CEB6
3CA5AE25
3EA0BCF3
3D89C3D8
BD26CFE4
BC249844
BE14AC12
3D1433A4
BD5EACAB
BE1A2B05
3A7906DE
BD11813B
3D5D7FA1
3BAC3DE2
BDBF9126
BDAF0C45
3D6D8B54
BD8C2516
BDA46410
BE17DB44
BE5C1B04
BDE63E8A
BC51D624
3C9BAB54
BA67B83A
BAAA950B
BBEE0C9F
3C95F27F
37422CEC
BD774EEA
BE1463CF
BE3A062F
BDD585D3
3DAFB329
3C391538
BD9DD342
BDC0C9B6
3D1CB037
3DB2088C
3CB881A8
3D098DF0
BD2AB890
BCC2BD35
BD04AE6F
BD1E1768
BB581835
BD8AC56E
BD49E319
3B92302E
3DA512A7
3C78E14C
3E40A6D2
BC959BF3
BC9015B3
3C6A72B4
BD056535
3DAF7099
3DD667F4
3C855D28
3C00AC09
3C12DCC2
3DB6549B
3D9EE273
3E110B18
3E1C3B10
3C033985
3D3620A5
3D3C5CE9
3CAD9919
BC8D93A6
BCA73DAE
3C99163D
3D1E4AC8
BD77B660
BD9787C5
3BEA7FA0
3CB7EBA8
BD061E75
3C97C543
3D242D56
BD3F955E
BD4F708B
BB45F977
BD4D0A54
3D0604DE
BD30C958
BDAB0CDF
BC75FDBC
3DD50B3B
BB2998D1
BD47C705
3C998961
BADC87DF
BD9D726E
BD594206
BD323A5F
BD7B904C
BD3F3C07
BDC8CD79
3AD467A2
3D604A98
3D49E461
3DD6C812
3CB9AE8F
3E501D88
3E30E153
3D969EAB
BDE13064
BD2933AD
3D2C1051
BB938A59
BC223CC6
BC2D8088
3D00D6BE
3DDDC17E
3E7FE090
3E2873D1
3EBBCC06
3DE0405A
3D96BE9E
3B8AD494
BC923B98
BD764A26
BC7DD282
BCB0C175
BCE0E840
3C6BDCFE
3DBB6590
3E12B19C
3EB1189F
3EC1A889
3E1181AD
BD9349A4
BE1ACE5A
BDFE3E37
BE2A73B4
BDA9C166
3D013EAA
BBBCC8FC
BC811F1D
3DA6A79F
3D0971DE
BE1F4287
3D2F9BD6
3E476B7B
3DC614DB
3EAAE127
BE0E0F8A
BD764349
BD84988E
BC6E3487
BD1D1B63
BD4B3921
3D7E143F
BD1882E2
BE077042
BE1B280D
BE098701
3E8EF6C5
3E7B5A58
BC56D556
BDE02FBB
BE5343CA
BE9B7C1F
BDD36903
BC87177C
3C610BFA
BD536883
BE23DF59
BE593764
BE6C1A05
3E037064
3E55EAE8
BD460B42
BDDC908F
BE6BBF3D
BE0847B9
BE14C221
BE2734FB
BD11DF93
3D1960B0
BDFB8DDC
BE1594B3
BE7176D2
BE4AE388
3EB3F97A
3E84F28A
BE640621
BDEB672F
BEE405FA
BEA14E5C
BDBF9659
BD178A8D
BC9753E7
BC5A6AE2
BD95750B
BDCEFBCF
BDC7DADC
3E140305
3EA54B61
3D56BF71
BE548057
BE5FDC85
BE589342
BDA73697
BBC9941E
3DA6842C
BD797289
BB01C456
BD06EA2F
BDF7E338
3CFC5AE4
3EBC3F43
3EB0C9A4
3E40E2DF
BD187105
BE624F12
BE944983
BDBC2F83
3C71877C
3CC739E5
BD3CBD84
BD0B0A44
3D04121C
3DA27F9F
3E585FBB
3E1596FF
3DFEC4C6
BE02E20E
BD86F50B
BE30A683
BCD85466
3CDEAEE6
3DD2DF2A
3BDF0A7C
3D61B4B8
3D15AF8F
BCDDED78
3D88FCF1
BB590F99
BDC28977
BE29DC80
BE6E2291
BDDDC047
BDD6C235
BE155FC5
BD8DB78B
BCEFC6BC
BD29ACEC
3C70ADE6
BD6ED314
3D2B1D65
BCC16083
3D503B20
BD642046
3C752936
3D0A5634
3D49FFE6
3D5B75BE
3D87F408
3CDCA230
3D664B42
BD4F25A1
BC7E256D
BB50A456
BD5A8FDA
3D7A1818
B9CAAE39
BC4492E1
BCB3808A
BCD7DF0A
BD6B6415
BD532A22
BCF74994
BD2C1C1D
BD4A7E4B
3C02B2DE
BC2C6F84
BD0E000D
BBA76E64
BD6EC766
BD64AED8
3D7D2868
BD1CFD61
BD667E82
BCE054A3
BD3B1E66
BC9D626D
3CF1E620
3CE959F3
BC4B241F
3C307817
3D25EDB4
BC9F1684
3D58CB2F
BD473F2F
3D2A3444
BD6542EE
3D214488
BD3B3612
3CCC4516
3B69489C
BD0A179D
39B16A3D
3D0FCB6B
BCD7E187
3C59B070
BD6E1842
BD8642FA
3CA6D20E
3D084574
BC9321B0
3CCF5BBC
BB938042
3D08784F
BD7EDCEC
BD8FB393
BD19C8F8
BCF31AD9
3CA828A0
3D17A06F
3D64BF2C
3C4D47D3
3CB44D66
BD96E4EE
BD947C68
3CD0E3D4
3DE2DDA6
3D1E9590
3D9848A9
3D7FDF94
3D54E22E
BCE47AA2
3CBD3CC7
3BD8903C
3C446B8C
3D5EDC57
BC28FBD4
3D472C3F
3D362411
BC2DD1FF
BBE55237
3BDEA2EE
3CC81061
BD039D82
3D608C06
BCE317DD
BCFD352A
BBBBB8A4
BCCD18D8
BCAAE286
3C75D264
BD80A02D
3D3D7C5A
3D01CB48
BCC8DDC6
BC16E801
BD42D69D
3DA11DFD
3C499584
BD789C56
3D380BA8
BD090EA4
3C2B7833
3D2AF5C1
BC6F7B87
BA5A0821
BD1A91CD
BD5DA1EC
BCC0D2A0
BD60B150
BD237F70
3D13B0F9
3C6FD967
3D4B750D
3B394D94
BC709D28
BC28B593
BD02D019
BCD0030D
BD056DE9
3C97C20E
3D635C21
3C6E0BC2
3D0BAC63
BCF1763F
3CB0442C
3D441AB1
BD8281EC
3C7E6C94
3D803600
3C4E3692
3CB2B29B
BD26EAB2
BCFAA4F7
BCD23285
BD6D41F3
BD23F932
BC928625
3CF11E01
BCE2F23F
3C3EE45E
3D434E22
BCB83528
3CE9054C
3B665657
3B85E4C5
3D0FE51A
3D5CA181
BD133483
3CEFDCDF
BCE14371
BD9A8674
3D67A83E
BC50282C
BC8966BE
BCC1DBAD
3D4FF54B
BC07244C
BD223405
3D595C19
BD8E4C7E
3D9DEEEC
3BA6E065
BD09E374
BD313A62
3CF03404
3D753243
3C798FE7
3D64D08A
3D8A7117
3D6D3769
BD5D2B93
BCF7FDFC
3C78C1FB
BB9A5FB9
3B942A14
BD037E37
BD52E29D
3D5AA940
BC19CBFB
BD8A9633
BBDD128F
3CB01D92
3C3C20CA
BD6487EC
BD49B965
3D4BB731
BD1558A6
3CAE314A
BD413E1A
3D39AC72
3D48E0C7
BC9B3B59
BC2330A8
3CC23A64
BD558A2B
3D5E9239
BD454D22
3D3BCE79
BCF578CF
3CEFCB8A
BCA194AA
BC6D002F
BD86EC18
3C458F83
BCE57DFB
BD804275
3CB3BB66
BD6700FB
3CEB79E4
BB98F039
BCD69060
3D11E1FC
BD3887EE
BD157920
3C9B1423
3CE6DBA1
BD5D47FD
BC99059B
3C81B6FA
BD18C73A
3CF7F245
3CEE4C45
BCDBB698
BD1096D0
BD1FC833
BD6BA70C
BCD88A04
3D1A4FB9
BC3A1CFF
BD6E2770
BD0EF788
BD501506
BDC14276
3D4F893D
BD610381
BDC9C227
3C0BECF3
BD078D18
BD3EBC34
3D102F38
BB80D501
3D09D1D6
BD7E7AB2
BDEFD8A3
BE4504A7
BE9C8FB8
BE31B55A
BC6DCBC7
BBFD4D78
3BD7B659
BD528F8B
3D363DB1
3B4ECDFF
BD400346
3BFD76EB
BD9E5C17
BD605FA4
BE81CEC1
BE894C91
BE6D2508
BE02572A
BE2F3050
BDC9DEA2
BDAAA238
3D2DA124
3D0FAD07
BC7D22D9
3CF43FDE
3CE33C2A
BB9C94EF
BDDFE2B7
BD71B303
BD8EA8C9
3C678312
BDF095E2
BE415942
3CD15048
3DA5A27C
3DA28C1D
3CB5932C
BD2D7304
BD8A651A
BD934D12
BCCE6FF4
3D6D8B30
BCAA27BB
3E3835A4
3E89B3A6
3C90AAA1
BE437F4B
BDC1D20C
BD2D20DB
BD7827E8
3D89C4CE
BD78BF58
3CD3B75F
BD9F3BE7
3D4931E1
BC067584
3B9AD923
3E4E3405
3E518F4A
BCE39B40
BD96F2D5
BE0F7EA5
3C79C217
BD970DE7
3CD99DD1
BCE05EA7
3CEC1DFA
BCF4B2ED
BD1BF5C9
3D322D26
3D79385E
3E828A62
3E78AFB9
BE0ED363
BE1FADBE
BDF9C119
BD57FA5A
BC54C1EA
3C6165A7
3CE4E124
BD9978B0
BC6BCDE1
BD930325
3D2A5817
3E0D4F97
3DF3FAEC
3C168A16
BD9E364E
BDC2DF00
3DC6C346
3CF6013C
BDB95E51
BDA16540
3B52DF5E
BCFD7DB8
BD67D31F
BDE5A573
BD89CD67
3A91F11A
3D8C42EA
3D00ED8C
BD9C5946
BDAE0BDB
BD9D1356
3D06AF59
BC982AD2
3C96AF14
BD221730
3B16433F
3C064C93
BA8BEAFE
BD9DC745
BD8B1B6D
BD4949C6
BE39A441
BDD88EE6
BCA8B0A8
BD10E2F4
BCCC14C7
3BA9675C
3D97B68C
BDD0EB66
BD5812C0
BD954F12
BD899498
BD16B3DE
BD73FF9D
BCE76628
BD443AAC
3DA958EB
3DC5DBFE
3D934008
3DD3F299
BD6F0258
3C63509B
BD73CB76
BD9359C6
3D2D4B3E
BD2FD4A0
BD80E51A
3D297128
3D9E19E5
3D2FCD14
BCE09948
3CA77C33
3DBB13D4
3DABF3CC
3B4BB432
3CB84011
3BAF6FD1
BD3A8B72
3CD38812
BD3685B4
3D120B18
3D106326
3BB0C266
3CFD38AA
3D3ADE08
BCABC56B
3D0C1228
3D5B4133
3C773359
3D5C0BAA
3CC96BD4
3CB48D8A
3D26CDE2
BD1CABAC
3D182BAF
BC71440F
BDCA0D54
BCCD8095
BD2F563A
BD6EB1AE
BD16DA9A
BDCB30A2
37829ECC
BD4D93C5
B824D9D2
BB9E7B8B
3CC94124
3CB49018
BD84C0ED
BD8D1732
BCEBAE80
BD8C1145
BE4E494A
BE39ACD1
BE6E620D
BE8A0C16
BD72ABC0
BDF09479
BC42B38A
BB57E6BA
3CA200FC
BCF4AE55
BD056623
3DC20C39
BDB26219
BE05747F
BDB3A880
BCC7DFC4
BD3888A0
BC9114D0
BE53FD36
BE4A2633
BDD06515
BD032A8E
BD8FB443
BCEF8374
3DA7E574
3DAE9D05
3E70D30D
3EAEBA6A
3E514CDC
3E8353F1
3D66E9EC
3D56404C
BE9E17D8
BDD2D362
BD8548FC
3D469327
BD5F3223
BC7BB812
3E86FCF3
3E454B24
3E5E2978
3E9461B6
3EA65DFE
BDE6A301
BE03F9CD
BE0183C6
3C25050C
3E11E740
3BB0B2D4
3D01A213
3B6BCA69
3EA499D7
3E4A8864
3E1D6BEA
3CBF2663
BD90C737
BDF50E88
BD4EDC59
BE3E408B
BD68BD78
3E386BDB
3C919062
BD8ECBC3
BC89EEDF
BD75BC1D
3D21A183
3DB9FAAB
3D91C79F
BD9CDE3D
BE86F624
BE3EABC5
BD809603
BDB2AB27
3BE6F77E
3E23D7DB
BDBB092C
3CDD53E9
3C5CE12B
3C2DE38C
BDDFD8C6
BBF00D7C
BDDC6A9F
BE877B99
BEB5929D
BE75A8FB
BE5F133F
3E506B81
3D3BE612
3CF1A57E
3C0CA098
BD3E78B3
3C8BE14B
BBB693C4
BDF029B1
BD882804
BDCAF84C
BE80135B
BEE439E9
BE140F39
3D622F47
BCD2B82E
3DD8CFC1
3DD29A95
3DCEBCDC
3D701E2F
3ABDEF0F
3C958F0F
BDB08145
BDE794B7
BE0948B4
BE51DADA
BE822E77
BCA62B95
3E4477A8
3E8DE5F0
3E532D4D
BC762211
3DBC1C42
BB4484B1
BB58385E
BB7E7981
BD9F98B5
3CDAE10B
BD25F620
BDE282D6
3D54FD4D
3DA8EC31
3DF5C06D
BB5D2D21
BD8DEDF5
3CF423E5
3DD0D9E5
3C4ADA74
3D51D98F
3D03100C
BD9099F0
3CEDC768
3DB60AEC
3E2D3441
3E922121
3E929877
3E10083A
3D0DECB6
3E46B251
3E00ABEB
3DF62ED1
3B6ECD6C
BD2C1B08
BD5593FC
3D167602
BCC450A4
3CA3C15C
3E190EAF
3D29E290
3E84FDE8
3DB6AC02
3E140DD4
3DEAAEE1
3D9370CB
BCBA6348
BCA314C3
3D4E865D
