BD581426
BB9D2563
3C1921C7
3C9E464E
BD01CDD5
BD92905C
3D0ECA48
3BC65DE1
BCA1E987
BD4A6225
3D195856
3CDE55ED
BBF484DC
BD8E4086
BD87628F
BD6246F8
3CDF47B7
3D80702D
BCDC3E8F
BD7682EF
3CCDA9EE
3DC6B7E9
3E35B76D
3C6E0B7D
BD82586A
BCC0C84B
BD77B91E
BC8F7CE6
3A9D9551
3CA5BD40
BDAEBEAF
BD43BF03
BDE16975
BE28FC33
3D89BEE4
3DE7A8AE
3DA480FE
3E374B7C
3D0D4370
BC0DF52D
3DB2FD1B
BC64393E
BD0F492A
BD9F995B
BD763AD4
BD9C0A97
BD9646EC
BE72F8FC
BC570751
BBA539FD
3DBA327E
3DE4F88D
3E134C34
3CA08DC8
3DED2A61
3C8A27BC
BC99A588
BD2F6816
BD68BA82
BD389869
3B2C63D3
3DEB9C0C
3E5EE25A
3DF4F335
3D5A80BA
3E2588EB
3E85095B
3E225D22
3E37D288
BC910231
BD6F992A
BBBE9E6F
BDAB12F4
3E122CAA
3E9FEBA5
3E7B396A
3EBA1788
3E8351C1
3DA2AE29
BE055EDC
3D913CB5
BDC5A1E0
3D32E839
BCB9F460
3C931903
BD2C4079
3C43910E
3D81482C
3E6457C2
3EC87C13
3EFF1738
BD9A4300
BE99710B
BB7A00E3
BE65F9FB
BCEB1B50
BDA87F4B
BD983504
BD3969C3
3CD0BA5A
BCAF4E12
BD62C4C4
BE77478B
3DC41535
3C49EF63
BDDFAAFE
3E3AF739
3CB30C25
3DF1F484
BCF11275
3C45A576
3BA4FB89
3D08E068
BCA93022
BBAFE17C
BE653A3D
BEB227C4
BEA9BC60
BE319D1E
3DFCD05D
3EDB4904
3EC89215
3E82AC07
BCD4D8B1
BC319E96
BCBA8205
3B0DDF63
3C87ABD3
BE0A42D9
BE07F6AE
BE7B8842
BE64E572
3D1D8ED3
3EBCB8EB
3EADBC06
3E400A56
BB922901
BC72FE73
BDCB3F55
BDB3ADF7
3C869847
BCF07FFD
BD0CEE5D
BDA98884
3E1222DE
3E9CAD08
3E5181EA
3E0C52C5
BCD2AFDA
BDB15DFE
3A8958A0
BC84AE27
BCEC847E
BC746FBE
BD1E438F
BCD3C656
BD0F45DE
3D9BB558
3E53D3A0
3E855ADD
3E53F47C
3DF6880F
BD9D3803
BC66D587
BD7E3CF0
BD85819E
BD1A1CEC
BDB82EA9
BD9C67CD
3C6297F1
BD6E82DD
3C3A8F47
BC859231
3D04FB5D
BDFBC9B9
BE50ABF7
BD339A8D
BCE57CF8
BD816498
BD43876B
BDBE5138
3C858F95
3CCBB565
3C9FA5D4
BD50E845
3ABED98D
BD937FF8
BCC3E100
BD2D0F94
BD295F0A
3CF2F762
BD029BC1
BCF45E19
BD2004A7
BD6D1995
BD3FC044
BCCF47EA
3D40863C
BD3834A6
3C205732
BC9F3B63
3D271085
BCEFC587
3CE1EA42
BD1F9DC6
BD1122C9
BCA59AF6
3D4DA20A
BD5CE00F
BD413A09
3D0B2303
BCB28ACB
BCDA37A7
3D5ACACC
BCF3A169
3CBE3106
3D465A1A
3BB671B8
3CE0F98E
3C7B7A25
3C8FA502
B9F29F13
3D161BFD
3D3A411C
3CF0F4D5
3D712060
3D67DCF3
BD9D4192
3D78E597
3DA10EB5
3CCDD8F6
BCFE4809
3D866F84
3E00A532
3E59153D
3DBD81D6
BC8ECF55
BD2D269C
3D426457
BC5966C2
39951DD8
BCE1CA49
BC8462C6
3DEFD24E
BCFC1661
BC8C24DB
3C00303C
3E1567F1
BC25D4EC
3DF94E84
3D5657D2
BDBDB5E8
3C8FEDCA
3D08E8E1
BD6CDAA0
3DA98ABE
BCC6CC2D
BD9B540C
3BB636D6
BDEA2146
3CAF0611
3E4506D1
3DC1E55B
BC82AEDF
BDB6ABB5
BA1DC233
BCE77ACB
3D827F1E
BD9B4E18
BD9D2FD5
BE866F5C
BE81BFBF
BDDC797F
3D12C35E
3DC053CB
3DFFB9FA
3E5CB0B3
3DDF019A
3CB8A79B
3D1A40A4
3CDB4219
B994352D
3B5FCBDB
3C300B22
BE401302
BE85C536
BD203132
BDB575BD
3E431034
3E36DED8
3E2017C8
3D8AD842
BC56EC50
BD23BF32
3C6978FF
BD61D135
3C0EE0C9
BE0E51E5
BC99A855
BCF1DFC1
3D17D942
3DD33B65
3E45AC20
3DFC9D17
3D9C7A04
3E46920D
3D2805F2
BD41EFD3
BC9DE1E1
3C12F524
BD1176F9
BC279083
3D359261
BC3CEBDB
BDF728CC
BE1A18F7
3D4923AB
3E275110
3DA0E6F0
3B3A9C6D
BDA45DC2
3BBA4321
3CE11274
3CAD894D
BE0B6A8E
BE1432CF
BE2D63F7
BE2C98B5
BE56101C
BDC1EC3F
3D82BABD
BE46B151
BE3FEA18
BDF02F98
BDA3825D
3D05AA64
3A1C30D6
BC56D901
3CB43CF1
BE441F8B
BE24D207
BEBAFAD6
BE176D40
3E05E051
3DD8C92A
3CC9C95D
3C35BD47
BD40B5FC
BD1F7F0F
3C1F31FC
BD4C31B8
3CED97A7
BCCE1CE0
3D159963
BD0AC19C
BDE61331
3DCCC5B2
3E6F38CF
3E2D1ED4
BB863750
3D893B15
3D7181DF
B9D0517D
BD89AA78
3D6ACE46
BD4CA8EC
BDB0C8C3
BDC8D01D
BCC217A9
3D33CCFF
BD800E2E
3D16C5B5
3E046C14
3D495E69
3E281EBB
3D3411FE
BD50CF13
3CC49D2D
BD3545C0
3C81EA4C
BD6107F8
BD972750
BCE57D15
3B63C39A
3BCCAE1E
3C62ABAC
3C4783D0
BDA077D2
BCFE2E6F
BCE93B3C
BD857776
BC39C982
3D0764CD
BD1023D2
BCBE39B6
BD7860E8
3BDE17CC
BD609791
3C0820EC
3D6B484F
3CF652FC
BD44890B
BD451695
3D34F63B
BC6528B0
3BA05DE8
3D524973
BC7DCA65
BCBE63B5
3D451CEB
3C7A0643
BD5ADD23
3D04114E
BD8523C8
BC901460
BDC1271D
BCDBBFD9
BD1A3311
BB9AECFA
3D371550
3C900086
BC4D3686
3D32E09C
BD204320
3D899F39
3D01891E
3DE03E84
BB71F4E7
3D62F47C
BAFC297B
3CAEDB9E
BCD82C51
BBF7DDA1
3CB1BC30
B723B46F
3CBC2FCE
BBED6D2A
3C4AD949
3DE8BD7F
BE041554
3B433BF7
BC933C3B
BE27643C
BE0428A8
3D3F7F0A
3D967703
BB90E02F
BCF81D7F
BCF497B5
3D0440F9
3D8DA4C5
3D93B60F
BD68A000
BCE0072E
BE3D81EE
BE4D5A29
BD8DC65C
3D4846AC
BD435E34
3D19CCAA
3D6F9EF1
3D199C81
BD721513
BC7FD744
3D6A42BC
3D8D6A5A
3D9CB717
BD29D4AB
BD50FDF6
3D847289
BE219EED
BD3807AA
3D0A2F65
3DD128CD
3D8DC49F
3D212B5B
3B451EE5
BC70BAEB
3D4BD0FE
BD5F1144
3D7561F3
BC4E99F9
3E078338
3E0D7FD7
3D769576
3D83B5A2
BD813656
3DCB51E6
3D48E54B
3CD0AF98
BCF43849
3C5895B3
BCA0356A
3D979A9E
3E958A01
3E80DC3D
3E1E5269
3D37F669
BDD4887F
BE5B0B9B
BDAAA96E
BDB88B3A
BD866EA4
BC971CA2
BCC05DA1
BC642F10
3BF8BA81
3DD76583
3E8476B8
3E8B21B6
BD54BF96
BDCD90E7
BD693404
BE2D5B0E
BE09E194
BD5DAD9C
3CCFD46C
3BD20DFB
3D42AA5E
BD126AD4
3CB2CA51
3DD29765
3E226A6A
3C1259D9
BE0E4AE1
BE7897F7
BE4774FF
BDF7ADE2
BCF55D87
3D6C9A3E
3CF3B144
3BAD439D
3BB49204
BC0F77FE
BC9428D7
3DF37789
BD8FEB56
BE690981
BDE3AC49
BCCB4735
3C46AC9E
BE24B074
3DC0931A
3DB95426
BD195698
3CE89196
BD3682B8
BD608845
BD76D6C9
BC91F444
BE1AAFFB
BE2E1017
BBC14A85
3CA9308B
BD22B597
3D81A9A5
3D15B6E7
3D82B9C3
BD1BB8B1
3B5E70D7
3D4B9766
BD677D65
BD3B1AAD
BE0AFDCB
3C4DC4A5
3D8E073D
3DDFB4D4
3DB8738A
3D23BD7C
3CF3577A
3D70D5FB
3C3FE65B
BD0612D0
BCE6F1BE
3D3CF3DD
3D2B3632
BC844BD4
3CD7659A
BD0E2646
3B83B1C2
BCE0D295
3BB8A9F2
BC403499
BD118927
BD0CCCE9
3C687423
BD50145E
BCE7963A
3D5E21C7
3C8616EA
BA1393CF
BC5FC571
BD09AC12
3D360D8D
BCC56E32
BD0D78D4
3D1F2EE4
BD59558D
BC03283B
BD79B5D8
BCFD7C39
BD40E269
BD5727D2
BC2FBE15
3D1E7BF2
3BC24793
BD461F91
BC236199
BCD17848
3D1713D6
3D0CBF54
3C83B991
BBB762D8
3CE1F364
3D79D3C0
BCF83CBF
3CD0802D
BD0436BF
BD392F97
3C1EE456
BDD17FFD
3D7F1045
3E2F211B
3C80EFBD
3D97C09B
3E66F968
3DF80D55
3CAC69C9
BD5B1F28
BD82504B
3D5247BA
BD15AD7A
BDC15CA9
BD426A2F
BD17DF63
3B87D899
3C13E92B
3E492F42
3E40A7B7
3E0A0165
BCDCB739
3DB95F3B
BD3ABB95
BBDD435B
3D1044D2
39B39869
BC99F192
3AC260D1
BDA7A5B5
3E162423
3EAE6D92
3E489C88
3E444503
3DE1E8BF
3DDF6283
3D8674CA
BA77B0A6
BD874C0E
BC602B89
BC2142C4
3BBAA9A0
3D9CD253
3E4716D6
3E9A95F6
3F07E201
3E9B0084
3D966E90
BE3D8F08
3DA2F067
3DC78374
3C7A2C9B
3C729CA5
BD32CF4B
3CAE9DFB
BD7D8A51
3E053000
3E983A45
3E8D3513
3ED1165A
3DB6FE5C
BD175AE1
BCE9747B
3C77D0AF
3D9E2911
3B238018
3C67E085
BC410667
BB9FA614
3DB20220
3C98D602
3E3A2C41
3DE95BD5
3ED1C57C
3E268D93
3E0990B7
3BB663E8
3D28E3C9
3E68D8A4
3CBDFA30
3C9783B9
BCEDD409
BCDDC1D1
3B9E9817
BB9A1A25
BDA33A95
3CD9E7C8
3E378ABE
3E307074
3E41FE8B
3E468AFB
3DCB7FC5
3D45CB6B
BDC20782
BC01A6B6
BCADFBD5
B955E86F
BE0F15A5
BD90010B
BB05CC5F
BD2F5DAC
3E52B25C
3E84D33E
3E363A08
BE1929D5
BDBFE35A
BC92F211
BD247FB4
BD78B255
3D646898
BD75F911
BB8A0761
BCCA6020
3BE4E0B8
3CD144A5
3E1E7AC4
3DF21325
BD2CBAF3
BC68A3EA
BD1C312A
3CFDB0AD
BBD8C8FE
BADFBD15
3D4AB500
3D1809D8
3D8DFBBE
3E0251FB
3E0DBF52
3E0EB29C
3E28513C
BDB5D880
BD15C77B
3CEFCFE7
3C83B384
3D9915A7
BD4A7519
3C9B9AB6
BB4DBCD1
3AC11FEB
BD955532
BBE8E948
3E0CCC58
3E1F7896
3DF7FEEB
BDFEE0FE
BD35F853
3D165A72
3D0DC8A3
3CD7F804
BD188101
BBBBA2DC
BD486AD9
BB336FDC
BC2C1E0A
BD68CE56
BDFFCE34
3C8CA31B
BCA46D47
BDE6783E
3CDC28F4
3C151F52
BD01923A
3D214F73
BD58C21B
3D0153DE
BD4FDFE4
3D2259CC
3C164853
3CA0A513
3CF39376
BC934E02
3D3260CF
BD96ACEA
BD4B80B0
BB7E4958
3B7FFEB3
BCE05F9B
BD59E679
BD56F3B4
BD5D6A17
3D49942C
BD0C9254
39A58A97
3D9E7905
BD2437EB
3CF6C7AD
3D9EE087
3D80562E
BDC2F916
3DE06824
BBB19DD9
BB7BA9B4
3C807229
BC48E9DC
BD37B807
BD888A7A
3CAE7435
3DF5F86A
3E031380
3E1A6D2F
3D7B4672
3D340B39
3DF5D834
3D3C6C3B
3CA49537
3CFD27A9
BC89FF49
BAB9D2EE
3C74781C
3D35EE76
3D91F8A5
3DECF1F3
3E14E11A
3E365A64
3E0DCE84
3D024716
3DA09EB3
3D656CF2
3E34B9C0
3DE28960
3C89C47E
BB01EB60
3D7B2C86
3DA4A535
3D6C471F
3D852C1A
3E140232
3E63E5FE
3DB9FA46
BC0A7026
3DB2AA75
3DA611E8
3E158B3F
3C1EA3E5
3BB12AFE
3CAE799F
3D36B01C
BCAE50E7
BD904893
3CFE2F52
BDCA73B7
BCCBB3A0
3D9C26CD
3E6C3272
3CD2CB41
3DFE98C5
BD207933
3D51DC5F
3D2DCF2D
3D537A16
BB90AB8F
BDE2A8A4
BD279261
BE64EE00
BDD8DED8
BEBBA18C
BE6B43BE
3E831EA7
3E8185DB
3E9A9619
BD3CEDB3
BE3514D2
BD5B7DA1
BCF7FA8C
BD4FF12B
BC8337B4
3DE427FB
3C9A5BA4
3E2CDB8B
BE691B37
3DF71A53
3E607944
3D6E651E
BCFE0B5B
BC988B6F
3D989D26
3D658241
3D1FFD9D
BDAF525E
3D501201
3D74495B
3DD59269
3DEA36A8
3D63B412
BDA416D2
BCC3F110
3C1AA8DD
BBD91C7B
3D1CFD03
BD8547CD
3C864649
3D2C5E3B
3CB5D26D
3D9B6C03
BC274057
3D526C69
BE2EC63C
BDB0950A
3BFE82E7
BE797380
BE2C8E99
BDDA12EB
BE10306C
BD1A51D7
BA5F8868
3D0EE70E
BD584D44
BE387C75
BD59A95D
BD1F203D
BE08B9D8
3DEFB1A7
3D3C7065
BD354E49
BD54599D
BD9072BF
BDC40149
BD9D124B
3C31D902
3D1D1FF1
BC00138D
BE40E43D
BE830311
BDE4EC53
3B1322E5
3D0160BF
3E5CDED6
BDD903A5
3D8F49B9
BD95F5FD
BD00F73D
BA281388
3CA45F7A
BD6E9CE3
BD4FE0E3
BD84DA3F
BDAA313B
BC7468BE
BC39951B
BB05760C
BCA878DB
BD613981
BCFB7976
3C9CF8C1
BD3C73AB
BC8F7B7A
3BDD49A6
3D6D5D79
BCC6A723
3C3751AD
3D23C669
3CE380B7
BCC7E990
3D55CF61
BC9919A9
3CE76AE3
3D6D7391
3CB1D382
BC8B9259
3CC87A8B
3D3342AE
BD3A2860
BCC05374
BD3AE1A8
BC11CFF3
3C7B1F77
3D729796
3CDC25DB
3D52ECAA
BD39D41E
BD0F29B6
BBDD9AEB
3D24C6DB
BC5D80D2
3D4B7D1E
BD6A8F29
3D5E1061
3D6DBB68
BD42176A
BD542730
BD558ABA
BD33DD62
BCB18B4B
BD71AAC2
3D27F1F5
BB5F1CD8
BB6A9D94
BD189A47
3D7B1E50
BB27EEB9
BD6A7C01
BD383A8C
3D48CE72
BC4D8947
BC7B8965
3D6208C6
3DBA6713
3CEE5C77
BD49C844
3D9BE41E
BD10C9FC
3BA279DC
3C6F9335
BD4FFADB
BD00B59C
BD57263D
BC75B1A4
BD5A6B9F
BC695DC4
3C84B133
3D3F8141
3BA2CACB
BB628CF1
3D151CE8
BD8A8855
BCBDA8ED
BCE82331
BC88DC3E
3D5FDF6B
BD598132
3D9EF052
BC772D6C
BD32718E
3CC6C0BC
BCE4DDF0
3DBF2547
3D2F1CC2
3D85F77B
3D70A0FE
BCB58507
BC0C3B09
3C153F4B
BA75B3B4
3C906BA5
BC838FC4
3D3A4843
3D920CB7
3D9407B5
3D94F2D7
BCC664BB
3DBDE6A9
BBD91757
BD41EF21
BD202523
BC5E5652
BD4A8565
BD1ECB67
3D3D527D
BD6C5F01
3D4E9EF4
BAEC4D0F
3D42AC53
BC8CABB8
3D84813A
3CCEB555
3C695B9F
3D0CA167
3D1EEB22
BCDF4D52
BD38F83B
3CF45C9F
3D3A679F
BD4F3D3F
BBBA0D63
3C09C28B
397F756E
3D539B8F
3DF6E5D6
3C6787B1
BC224CE9
BD386B9F
BD1F638A
BD804056
3C25432C
BCEF36C1
3C8E6946
BD6403B2
BC5413AB
3D211EBE
3D892BA7
3C98108D
3DD85DE7
BD2C6B17
3B139BDF
3D5437A5
3C156085
BB85E88B
3D264133
BCA457E8
BD31EA23
BD977724
BD8C789B
3C4A82B2
BD716ED2
3D7880CF
3D9B5A4F
3D6D8989
BC5C9E4F
3C923780
3C1667BA
3C78894F
BC8B508C
BC97183F
3D41699C
BCF54A8B
BCB2C460
3CF461E5
BD3F44A2
3BF5DD0A
3C88A60C
3CE9E4B1
BD61C820
3BEB8C8A
BD37FEC5
BC048A17
BCBEC705
3D5B621C
BD0204B5
BCDCB93F
3D07A940
3CC1D09C
BD927141
BB886A91
BD628677
3C1340F5
3C0EB4FB
BC203487
3D208477
3D3C2DBE
3D40B63E
BC6256B9
3C9C55F3
BCB96EEB
BCE24DF4
BC9CD693
3BF37517
3C4E0BB5
BD23C3C9
BD40FFA7
3D00C253
3C84A1AE
3BEB44A7
BD0CAE0A
BC38F992
BD0D682C
3D690EA7
3D1F7C71
3D74D99A
3D374F03
3D507B06
3D2F8DF2
BCB257F4
B9B3D8CC
3D0354E8
BD57FADD
BCB31304
BD1F7456
BDACE7FD
BCF821B2
BCD2CAC3
BDC21225
3C16C2C1
3C95AB53
BD93B7E3
BDC83C7E
BC969D60
BDA37088
BD9E189A
BD6AF715
BDBAD327
3B9B59B2
BD0FCCFD
BDD00D8B
BDCFAC41
BDBA742D
BCAB25F9
BB42C7DE
BC5AC6B0
BC569746
BD81449D
BC95B713
BC91C9D9
BCEE821E
3C112E3C
BD8F0CDB
3C527AC9
BD72944A
BDBA3CB8
BDBF18E0
BD91D79D
BE06057B
BD8FD51F
BDFBD4FB
BE02B4C2
BDC8CCCF
BD88048A
BA31BA93
BD896E47
BD560FF6
BDAE029D
BC473B48
BDDAF8D7
BCB1B35B
BE0CC3D4
BDE0801D
BDFC359E
BE429BB5
BE63342D
BC8510FE
BCB10A28
3C59BE37
BD8A1C41
BD8A36D7
BDC7125B
3CB61CFF
BCB41E0D
BCB437E0
BD1D6D41
BD4BFAA0
BE3863E3
BE4DC7D4
BE51471B
BDB0DE64
BE15B15D
BD5B2E81
BDAEF5A6
BCA8F64D
BDD93550
BD1FA746
BD8F8675
BE12CAE1
3D64E088
3E83EE92
3E455343
3C72DAD5
BE78C9AE
BDEFC9F6
BDFF54BF
BD5F8998
BD85E7B4
BD1D40AA
BCE340DB
3D6D6B1A
BD9833F3
3DB446C5
3E4E9E73
3E46446D
3E1C98A9
BE10703C
BEB2EA23
BE627606
BE4FF37B
BDBB8B7C
BCFDCD5F
3BD4013C
BD7505C7
BD9FCB86
BCB1FA2E
3CE96022
BE13680E
BD6C1906
BE4538F3
BDEF3CAA
BC001A92
BDE0DBC3
BD19D20C
BD7208EC
BDA7A200
BC5086E6
BDA1A741
BDDF02D7
BD40F6BF
BE0497A3
BEAA4253
BE28ECCB
BE7DBD7D
BD97C666
3CEC32F5
BDBE326C
BD8F342E
BDB7E1A3
BDB1F34F
BD234855
BBC60A40
BDCB6684
BD6FBFCB
BDE7D8F6
BE908A4E
BE86120E
BDE41E43
BE448657
BC259A06
3C4565E7
BD644046
BDC6DABE
BD0477EC
BD9DC2FA
3C7D21FD
BB9A763B
3D53DCA7
BDFFDC35
3D122E84
BDEBB8DA
BD354A24
BE45A4EF
BE36D769
BE3442B3
BE2322C0
BD4B59C2
BD648069
BCC78B02
BD1BC307
BDAF6C38
BC633795
3C19164C
3D802A5A
3D4A0B9A
BA890B38
BDC19A7C
BE877A40
BE8A4950
BDA39E65
BE091E99
BCCEA2EB
BDB1E00C
BB23C3F5
3B873613
BB2580F4
3D124CD1
BDE93053
3D558D98
BCDFB20A
BCD7B478
BE0CD9B7
3C98EE8C
BBC4813A
BDBD468A
BD99FEBF
BB0D7504
BD5CC047
BCD713F4
BDC37C80
BDABF9A1
BD3AE174
BC7D8E7B
BCDF5875
BD2F5BEC
BD6527D9
BC5E0C3B
BDEE5020
BD9FEDF4
BDB13ED1
BCA10C73
3C8A22E2
3CA15C68
3D4D9068
BC552D2E
BC6E8D94
BCC31425
BD4C143D
BD2AACE8
3D38F725
3D65632A
BD42EF25
3C235778
BBF5F9AE
BC3F0930
3D7838B8
3C4317E9
3D0C6093
3D827BF3
3D3AC7EF
BE09F1FD
BD65505B
BC8AF563
3DAB8072
BCF07A2B
3D0A12DB
BCDD7B28
3D732D4F
BD121177
3D01136A
BC88D706
3C3955A7
BC97CD0F
BCBDD18C
BE1E3157
BDBCEDCB
BD39E9A0
3DE429D2
3E073FE2
3C6A03EC
3D4A8629
BC6CE060
BD0E2900
BD3F4D42
3D8B2E82
BD92FD76
3D78E27E
3DCE6B13
BD49CD49
3C53F47B
3CAD6FA5
BCFE57EB
3DC877C0
3DCFBAA5
3E163099
3DE9F1B0
3C6894E3
3CF4104C
3DBCBD36
3DFC01FE
3E56180F
3DC131ED
3B2BB911
BE162506
BDA1A43B
3E24676C
3D227939
3E31099D
3E6974C2
3D396B6A
BCF5738E
BD18B789
3E250A60
3D969D55
3E1027AF
3C4C18A6
3CD71ED3
3E1D0830
3DC067EC
3E182C07
3E4C653A
3E2CF043
3ED666E3
3CE86007
3CA7E297
BD58CFDF
BCA008F5
BB60799C
BD8AC757
BD8860C4
3D6E82EF
BD593B94
3C8CE2ED
BD436BA7
BCEBA0E0
BD6F32DF
3E01CF1D
3B1221FC
BD18D29E
BD012E6B
BDDDAA37
BCB351A2
BB7F91FC
3DB270C9
3DA109FA
3D905A0B
BE4703E7
BC42079E
BE74CB7A
BECC7240
BDBBD7C7
3DAA47C7
3CC1F240
3D1EE6EC
BDB36215
3D5FC6AE
3E354361
3E1BC23E
3E4D3C1E
3E494449
BD8CFA06
BD4AF53C
BD75A738
BDB35A64
3DCBC8A1
3CBA99B0
3BCA68F5
3BFDC87D
BD9216E3
3DD6D387
3E2A7787
3EB8BECC
3EF6203A
3E90CCAE
BD369261
3CD2AEC1
3DE3B22E
3E83A304
3E5CA457
3AF484FA
3D5F6E57
BD557426
BD8DD2A9
3E8CC01D
3E3DA94E
3E36AA8D
3E577791
3E6E1313
3CE9ECC5
BD8B1B9B
3E124363
3E17F7C5
3E1EA4E6
B9AF081B
3C361752
BBB01215
BCB77D2E
3DD73569
3CDE1E5E
BDEB6B2C
BDCCB2FC
BDBF66D5
3DC58F6C
3D0A038D
3C7B1954
3B64F2BB
BDCBE43F
3C9B8D09
BD66C9FD
BD46A035
BD1B5457
BD89E854
BDC763AF
BE382DF4
BDE14E20
BE04E4C9
3D069C7B
BAD21E69
BD8B17C1
BDBD376C
BABC72CD
BAC40132
3CD1F15F
BD1A163D
BD0B6137
3CCDCF82
BD3C259E
BD7FE6BE
BCFD3549
BE108353
BD81511E
3CE06BCD
BD9F4A9C
BD1F7DB9
3D053105
BB734B6E
BD111B26

