3B6A0366
BBCEA97C
3C68C9E9
BD2BDF9E
BD331454
BDC11B9D
BD589807
BDA2FF17
BE12771F
BC9E10E9
BD6ADCC2
3D081AB6
BD0CEA1C
BA8E1E05
BCE3C7A3
BC700A36
BCB87A99
BCC7B5DC
3C170296
BBE8D6A9
3D85FBEB
3DC6AA12
3D98C0F5
3D1460C9
BD67D45F
3E184CB0
3DB20D86
3D4C233A
3CDFD156
BCCB0EDE
BD2C9581
3D5A71B2
3E502F39
3E03522F
3DCC4BC6
BC1B3C73
3C8DA088
3D76948B
BD5D3DAD
BD7B5769
3E0AB14F
3C8D0A24
3C87C273
BD0AAC1C
3D41B070
3DD8DF9B
3E412890
3E924060
3E3C564C
3DB211FB
3DB1D403
BE275155
BDFC4D6C
BC27FF4C
3CF00B01
3D805E73
3CE2AB92
BD12351C
3DA012FB
3DAF0CBC
3E255FC4
3DEB80FA
BDA10DDA
BC0DD02D
BE7332D6
BDF82775
BE3D4937
BDDEF3E6
BDA889C9
3AFBA80F
3C21F10C
BD3928CC
BDC2E37F
BC977965
3DA90BD7
BD991754
BBF398D4
3D0A8148
BD594328
BC65CEA5
3D904132
3D96BE5B
BD63A69B
BD635EAC
3D442B3D
BCFBA074
BD23DDE8
BE1F8C67
BE1C081B
BDBB091D
3D92D357
BD9F19D4
BB04D768
3E76B8B2
3D96FB27
3DC92131
3DB39A71
BD92F0B0
3B382209
3D44A8B5
BCBD9BF8
BE10D2A0
BD069721
3DD0299F
3E213F9F
BC0C8B85
BE21D586
3E27B3A5
3DE059CA
3E368C91
3CF07688
BCEC7B87
BD82FEB4
39EC41F4
BD63BB46
BDC4B28E
3CFEE21A
3D6D0722
3D8F5389
3DED4C5D
BE406E5F
BE281503
3D20F623
3DE62095
3D36F4B0
BC49A242
BC77F0E8
3C393536
BCB499B2
BD89E354
BDE9FBB1
BD93B51E
3D4C9204
BDBD8FC6
3D9D7668
BBA58938
BD35323D
3D914562
BD84080D
BD80DDB9
BC6E7B23
3D18A568
BCC8DDBA
BBA9EB64
BD071091
BD9DF4C3
BD39B20F
BE1AC871
3E0BE8A0
3DBE0342
3D1EE3C1
3DDF3967
3CABA146
BBDD44FD
3CFA5072
BA3BFBE6
3CBA8FD7
BC89BC11
BD8AFA8B
3CAFE838
3C834CAD
3DFEA311
3E799CD1
3E15319B
3D2C08DA
3DBE4678
BD15C823
BD41B4A5
BC062B31
3D1ADE1D
3C86C89B
3CE505ED
3D4EDE02
3DD6EE3B
3DA0FE70
BBEBA49E
3DF8FEB1
BCB6D61B
BDDE7F09
BC8703A9
3C925D25
BD03DC78
BD5FBFB0
BD79D1E7
3D671CFE
BD24D751
BC5C79D8
BD2FA297
3C8F5BE9
BC7154A6
BB95CB04
BC59B7B2
3D0E062D
BD0663FC
3B52D7A5
3C6FE308
3D47B60E
3D7AADAC
BD3FE83E
BC3088A0
3B955B3B
3BBCF3C7
BD3A972E
3BAB4FA1
BD782847
3D1E2FB5
BD4AD10B
3D636E62
BD3F4B18
3D288900
3BB6914B
3D3BF751
3D005F21
BD433844
3D0A64C8
3D4625B8
3D241976
BBDDCD05
396084EC
BD9494A2
3D4C76CA
BD64E99D
3D10C75F
BD76908E
3D582AC8
3C65719D
BD248EE9
3D2F4D14
BC03B769
3B59BB56
BD99B1C0
BE03B898
BCCAB530
3CAAF976
3D963066
3CD17FAC
3D3DFCCF
BD293CBF
BD54397A
BC907B27
3AB1BEAD
BD643BCA
BDAE41A5
BE38F3BD
BEF727B4
BF15DE73
BEEE9073
BE872E04
3D540622
3E33DFE1
3D185537
3CDD0B8F
3CD3F026
3D766C6B
BD2E26EE
BDC8C205
BEAE6741
BE9A0294
BEB6C70D
BE8E8787
BEDDC414
BE9C2E51
BD37BB90
3E02C3BB
3E103BD2
3C8189E1
3D030CF3
3CB92349
BD5D2029
BE384D39
BE0E5CD2
BD73103C
BD95CBAE
BE286A46
BE98C0D7
BE4E9E42
BE053C26
BD2EC243
3B1802EE
BB8B17A0
BD6C9632
BDE8D1D3
BE2375F2
BE271949
3DD7367C
3E185E8F
BD2A424F
BEC429D3
BED6BF2E
3C834006
3DB73CC1
3DC4237C
3D0D7956
BCE761EB
BD81272B
BA81C107
3CD7D9A0
3DDD1B3F
3E4DD9C3
3E87DBB9
3DAD4F9D
BD3B96A4
3B2636A5
3E929E3C
3E74F19B
3D2575C4
3C104482
BC3ADA89
BD03E3C9
3D9DBD73
3DE78775
3D24A92B
3DC0469D
3E25DA22
3D8BE13A
3E4D7D05
3C232B31
3E218531
3DA004C2
3D06F9A3
BC947688
BD2B47CD
3D742077
3BF32167
BD9B8F2E
3C53BD2C
3D7B5970
3DCE2ECF
BDF40393
BD719B11
BDCAD46E
3E277685
3DC4F959
3D305FF9
3D77CD8B
3B487E52
BD147E9A
3D13AFE5
3DAC452B
3D61F46D
3D83B9AD
BD186103
BDF6665D
BD0B6B5A
3D23C14D
3D70DD2B
3CBED79F
3986943D
BD9AD890
3D667C3C
BD0203A0
3D050F86
BD6B9798
BD084BEE
BE68F8B5
BE116687
BE23DEC8
BE241206
BB87DA72
3CF77251
3D959F3C
3DD21ED1
3C9390F8
BC4110EF
BD74C7FB
BCB0AF68
BD90F13B
3C09F266
3D3FC7C9
BCB6CD74
BD4F08B6
BE0C182A
BDD70AB9
3DF4470C
3E1E164C
3D65466E
3CC15FAB
3CA895E5
BD6F4298
3C4B9D6D
3C1096C7
BD8124A8
BD6CF7E6
BD0C3816
3C622513
B9831A7C
BD2322C5
BDFFF8B5
BD5A8091
3BEE9027
3CC3B34B
BC06F204
3D46C777
BCAEDD98
3CB212B4
BD778F03
BD92C769
BC890BEF
BD4C3032
BC7C1066
3CB636E6
BD984AEF
BC220C33
BCBCBF77
BD0C6284
BD447A00
BD09E166
BD4DE222
BC5B2D08
BA4F4E47
3AC6A3B7
BD6D679A
BDA1C053
BCDEBE4E
BD8F2B2B
BC32A36C
BD1EAF75
BD133540
BD1B3418
3C793B1D
3D03B5EB
BD28535D
BD136E91
3CEFC655
3D260966
BE55794A
BE377410
BDACF724
BE068600
BDA51471
BD7A7AF4
3DA8AF1E
3DA6CDCE
BD56E0CC
BCE2D37A
3C07E1EB
3C79D99E
3D31ABD1
BCC23DBF
BE031331
BE6564A4
BE64D464
BDFE7678
BDE3E56B
BD8888F1
3D872B89
3E108498
3C64ABB8
3B08C465
3D73A4E9
3D6973D2
BD3EA95D
BD3CE2DA
BD982E4A
BE294480
BE0CC115
BD8B5C7D
BCCE0C8A
BDC6BEFA
BD5ED0E1
3DC6D0C3
BD5FC7AC
BC4F4A3F
3D072005
BA5304EE
3E3A21A2
3E7766BA
3E26DFDD
BE361787
BE8A100E
BD4A33E8
BC8B5070
BD153D81
BDDC5D6B
BDEE3449
3D4C10CB
BCED12DE
BD8C2E7D
3E0C69F7
3E897CF7
3EB5CAE1
3E4A235D
3D53113D
BE1690BA
3E27D8B3
3DEC66BE
3DE9F88C
BD90BBFE
BDEF2BDE
BBB8FB20
3B7B653E
BB9303F7
3E2859C5
3E4E0E34
3E0F34E3
3DC3C35A
3DC970B3
3D5EB6FA
3EA023E8
3E60603E
3CA7A5D2
3C7F0790
BDF3FC5B
3D3047BD
BAF8B607
3C9994CF
3D81FB20
3D1FD264
3DBEEA11
BC3C39F0
3CDE9E53
3E053A3A
3DB3AED4
3DD64234
3DF9D70D
BB9BD4A9
3D0E8EDC
BB4E0581
BC94A367
BC052865
BDA4E86D
3C34D50D
3C05EE78
3C752806
3DAC43F8
3DB8C203
3D418D79
3D8A8B31
BD89C9C3
BC856FD0
BB9EAE13
3C9E0427
3C2DFD84
BD54DF8D
BD579617
BE0E3D93
3C38391F
BD8647C5
BDA81FB6
BD815C0A
BDC89154
BDB251E4
3C6D5276
3C6E2B7A
3D4107BE
BD56A627
BCF15D7B
3D073299
BDC802B5
BDCD2418
BDA0325E
BE044AED
BE4961CE
BE1F8F0F
BE54F72C
BCBA9E4B
3CDBC000
3D28712E
3D0A784A
3D446DEA
3D2C8E69
BD44B773
3CF0AC17
3C26E960
BDEF2143
BD1140BC
BE33BEF4
BDC88252
BDF11C57
3D0084B0
BDACC769
BD56EE51
BCC512D9
3D464A72
3CF86FF6
3CA40E13
BD14399E
3D3105E0
BD7167E4
BCBEC72A
BDB1C5F8
BD0B0C6E
BDE4BF93
BD7D672C
BD7AB6C6
3CF492E9
3C8A785D
3BCA7A78
3D0CC6E7
BCB5BB6A
3C2BDC53
BBE728C9
BCFEE7AC
3CC072AB
3B6E32A7
3C67466E
BD5F6A17
3D772F1A
BCD532BF
3D263E52
3D5D5B79
BCBECE8E
BD6A95EB
3C559381
3D1BF1EE
BB1B59A1
BB9D9A52
BD968307
BC2AE1DE
BDD85FAC
BE07BE06
BD1074AA
3ADA2FA2
3D30A3C0
3D49E588
3C742E78
3C535E08
BC9993CA
3D1B74D7
3C541E3E
BC1224F9
BD239D05
BCDCBBC0
BE2B9FEA
BD4CAB3C
BD54CFEC
BC0631C1
3C4E90A2
BD17CF7B
BD31338B
3D4DF46B
3C936DB9
3C322D3D
3D25D18C
3D035DB4
BDB8BFE8
BEBEACF9
BF0E799A
BF0FBBCF
BEDACED7
BE0D77B6
3CF6C966
3D832027
BD20137D
BD318927
BD13AF0C
3E0DC6E0
3B1C841B
BE4D5041
BE710CDC
BE9DD4AE
BECFE829
BED20F69
BECBA1D8
BE6A8AB6
3E28306E
3E0A1BC5
3C6FF8E9
BD36808A
3CC6D864
3D4A2C89
BE35848F
BBA9A673
BE2B5BE5
BDE9EAEE
BE32B88D
BE80D9FE
BE6F9D61
BE36AA13
BCB41618
BD1C1634
3D1682B9
3B032584
BB669C6F
BDB34B11
3C21CA52
3D8539E7
BD13918A
3DB2E3FF
3CDCC3D2
BE389925
BCD58910
3D0C8B78
3CB3691B
3D8374C4
BD4BECB3
3C38A096
BA844136
3E92A5EF
3E8EC668
3DE88C18
3E771403
3E9B6B00
3DDE243D
BD65461E
3D7F5324
3D840CB2
3CBFBC6C
BBF38CF2
BD70DF57
BD111C33
3CA3C1D9
BABFFED2
3E0DA110
BCC6B337
3E23EEB1
3E587BC9
3EBD6CA7
3E1E927A
3DD8AABD
3D978B5B
BC061AFC
BDB40C5C
3D0645B9
3AC66316
BA3266DD
3CC1BC4A
BCE1A8AE
BCB45E54
3B9D8950
B974D3AD
3DA7F2B8
3D9F99C0
3DF5AF3C
3DC59DA9
3C855E57
BD651899
BC844D61
BCC54FE7
3D3517E1
BD2C7B5D
BD543100
BE097277
BDE0A319
BD2D10A3
BE03D605
BD20FCB4
3D51C8C2
BC1F69C5
3C46AE09
BDA95285
BD4BCE59
BD0FDCC2
3CC17689
BDB4A213
BDDF1C99
BDAF5CEA
BE3AE6AE
BE64AD80
BE6D5284
BDFA7BFD
3DA2381C
3DF3B4E8
3D1F3D5B
BC8C48A0
BD40BAE1
BB3CA1E1
BC52ABBF
3D04A51D
BCF94066
3D8B5EE4
BDEFA6D3
BE0DA10F
BE312792
BDFC1045
3CFC0914
3D11DBCF
3D3F1F0C
3B38D39A
3C8003F3
BCBB0012
BB946C9A
3CD54B05
3B2149F4
BD8F24A1
BDCF8B0A
BDFC0007
BDF5AACB
BD5659A4
BE0D8548
BDF3B4BB
BD248465
3D726474
3D20B85D
BD243904
3CBECDC1
3B18F561
BC41389C
BDB87053
3B807717
BCC5D589
BE0775B5
BDDE0E2E
BC1D4450
BBC9FD7C
BD012535
3D627EA1
3CDA73F6
BD75B9EB
BC344E4E
BD6C5DDA
3D7A21DA
BCE4B02E
BD2A7862
BAEA2880
3CCA188E
3D70D9AA
3C22A454
3D3E8A15
3DF9F083
3D8CBA06
BD0A0167
BB81B4FB
3D508DB6
BA3D656A
3D713FB9
3D752513
BC4B89A3
3C3CFDF1
BD9CED4A
BE3BB793
BD6B2783
3DA10CA3
3D5799E2
3D943F98
3D500273
BB58C749
3DD1881A
3D69FE75
BC59FB11
BD66DCF0
BDFDD50D
BE8BB682
BE5074CE
BC455181
BD8AE630
3E0024E6
3DD5FDFB
3DCB620B
3CFD9303
BD77EA13
3B98CA3B
BDB4EB89
BCC0E3E4
3BCA437C
BE36B47C
BEC19992
BE60867E
BD962F38
3DB9E471
3DDF3DEB
3D2D1761
BCA3434C
3BB44358
BB85E27E
BCA5D692
3DA0985F
3DA3D9CC
BAD5D799
3E1537EF
BD26029A
BE09C79A
BE757B47
BD0D3F88
BC9EFEDE
3D8B8B5F
BC94E38A
BDA5AB6A
3C220C3E
3DADCBB9
3D6D704E
BE2C4577
BDE26993
BD1B341E
3E5A4A6F
BC3D807A
BE4C9D0B
3CF9B7AD
3D9A42F7
3D3AD664
BD190B77
BC8019C5
BC8F46F4
BD251282
BE2DF060
BE33FFEB
BBE2537F
3DBE250D
3E1AB503
BE26FE82
BE2AC0CD
3DD8589E
3DA7A0AF
3CCF2DCC
3CB8A7BE
3BE95FCB
BC4E26D6
3D5DFACF
3DAFDA87
BD738896
BC768CD0
3DFB8ED8
3E28E790
3CCB30E3
BCE30D7A
3E3D4964
3E253EAA
3D114D31
3CAE5981
BD8134D4
3D468DCC
3D46637F
3D9ABD95
BDC62640
3C8F804C
3BCA7193
BDD704F6
3DAE3864
3D5DB63A
3C8089E2
3D1566AD
3D5FE72C
BCC839C3
BC7CDB01
3D7E1487
BD9E2480
BC7B9663
3D9C3AC0
3D7E6201
BE32D9CC
BE95C773
BEB3DBEF
BE856D40
BE0B1F1E
BD6FCCE0
3C671995
BD9B0C5B
BD348225
BBC178EE
BD287242
3C2715E5
BC5CEC55
BD8BAAE6
BE1D088C
BE68DD73
BE4928B1
BE1D3573
BCA43171
3CF9C4BB
3C6C92AB
BD79FD0C
3CF464C5
BA7154D8
BD18805F
3D39E8F0
BE0D9534
BDBB17DF
BE09CB20
BDCF9C2B
BD823192
3D3AE45A
BCC43B60
3BC8D7F2
BCD38F63
B9404E43
3D3102C9
3D6E46A4
BCDFEA5C
BD5F74D2
BAE3A323
BD5D12FB
3D472886
3CD66853
3CBEEE85
BC4F52BF
BD751C23
BD091883
BC616A50
3D4A5D69
3C97DBF5
3D371035
BCCD8BDE
3D1D4764
BCA5E25B
BD0AC3D1
3D20CA32
3D6566E5
BD765633
3C5193B9
3D2CD8E4
3D100251
BD301549
3C885728
BD21FB76
BD0331EB
B9C785D7
BD801D3A
BC9D7131
BD33910C
BD479AC9
3B64138C
BCACACD8
3D46E20F
3D389426
BC4F3FE4
3D57B7F9
3CF7A4CB
BCF7B13B
3C2A99C3
BB32D38D
BD276418
3D4A09B7
BD18B7A6
3DA4E16B
3D7A3500
3DCFFD2C
3D8714AA
3DA434C6
3D9F26D6
BC351643
BC8EC7E1
BCB2B90E
3CEECF9B
BCA2D96C
3D8176FF
BCDD5E57
3DE3BBF5
3DC815B0
3DAE1771
3DCF1FA5
3C93F54D
3DA96EC5
3D00DA83
3C87E050
BC3AE0A5
BD56BC7E
BD323D4F
3CA1C3CA
BC130299
3C3F7B2A
3D4999E7
BD0C601E
3D7ABA87
3BA1BBCB
3C2B34BB
BCAD5570
3B91D6AE
3B614EB4
3D50F609
BB5DB05D
3D6077E6
3D27D40C
BCF604A8
BD148B3C
BCD56FBC
BA8C52E6
3D130EC8
3D5461D5
BC26F572
3C2CF7DC
3BC59766
3CA76FC1
3C28F67F
3D51246F
BD642E53
3D1C93A0
BD1D7D0C
BC313ACA
BD88474F
3D257D33
3D6EDCB7
BC3FC8D0
3D680CEC
3C42B6BF
BD0DEADE
3D830616
3D1E1BFE
3CFDDBCB
BB6F1863
BD201AF9
BD2EDD7F
BD4B9F0F
3C335FEF
BD71C0C7
3CD7284B
3D1CBC74
3BCBAC45
3D6F6EA9
3D856670
3D84D22A
BC03F609
3CC1ACED
BD19F4BA
3B3A9DDE
BD2EFBD8
BD5162AA
3BEC347B
BD80D2DB
BB8EE230
BD595DD7
3D4BF9BD
BD049D62
BB171816
3D4E72ED
3C5C58A5
BD152E59
3C93DBDB
BC59FF29
3D4C1A95
BC86A5B2
BD5999C1
BD17C341
BD3E3370
3D0B7C61
3D15AB9C
BD14869A
BD6E3758
BD00B9F2
BD60A6CB
3C802322
3D6C9C0F
BC41CBCF
BD48FFF9
BD625988
BAD99568
BD08F75B
3D1BC738
3CC2669E
3CAA3D09
BD1BB956
BD08A78D
3D84B40E
BCC00616
BD4F8BBE
3D43EFB9
3D3C2B3D
3D04881B
3BCF67FE
BC9759C7
3C3621CA
BCEE08BA
BD57F69A
BD5A6A85
3BFBCC89
3D62E310
3D26B7A3
BD6D581A
BD1CC963
BD427D74
BD2383AA
BCFCAC0A
3D49486A
BCC1416A
BD579BC5
3D48D608
3D9AC99D
3D265DF6
3CEDCCC3
3D4C8854
3CA41B68
3CF74AA9
3D020B25
BD290EED
3B8A3791
3D50144C
BD70ECA4
3D06522D
BC79C238
BB19CB42
3D4DE430
BD1FAA44
3B17AF51
BC8108C0
3D0D8FF0
3B724091
3C4E5754
BD2AF42E
BCD8F2AB
BCBB250D
BB8FA8ED
BC5F99AA
BC7B05F9
3C206C08
3C0ABACA
3D82C5BF
BB7534F2
BC84C1C6
BC1E7202
3CD78937
3D3099AE
3C6C4575
3C58DF66
BD2E508C
3CCEAA2F
3CDC76A9
BD76A147
BCE1AF3A
BD9CA1F1
BB090CDA
3CE8842A
BD90300F
BD6F607C
BD315FAB
BC98FA11
BD627441
BAEEB3CE
BD0E8B21
BBF0CAC5
3D1A78A1
BCB46D25
3BE4B0E2
BC780CEF
3CD65F61
BCCC1023
3D05FDD0
3A8F4785
BD9154E9
BC8ACB09
3D4FCB42
BBD7F20E
BD9661C1
BC4FEFD5
3CA27F55
BCD74032
3AD92907
BD844311
BD347F3F
BD305614
BCC592C5
3D13F4C8
3CE0B1FE
3D2C7F11
3D09BEFB
BC74F208
BC084DB0
BBF87EBC
BCFB3B5A
3B8C3B6A
BD198302
BE09FAD3
BE0DB852
BDA249CD
BD35A252
3D24F761
BD589B5F
3CDC3C1E
3D385BD1
BCE932A3
BCEE1D84
3CA6ABF5
BDE34E44
BD2C11AA
BDC4304D
3DBACBE6
BA99403F
BD40402E
BD95E5F8
3D6BF9FB
3D17B73D
BCE037C5
BD655947
BD9B5C71
BCF09BE7
3C1BD030
BDDBA776
BD35D5EA
BD053F69
3D584447
3DAAB202
BD37437C
BCFB7ACF
BD330E0A
BC0978AD
BC9E3BC9
BD6D50F2
BDD6A124
BC039199
3D8A20BD
BD9C4F40
3B23BA90
3D53102E
BD60B35F
BCAE3ABE
BCF851B4
3B925547
3C1C7F28
3C033E4A
BC7BDDD4
3CDE92A3
3D9A24D8
BD9DA428
3C42A2FB
BE0885D0
3CD7D458
3DC43800
3DE1B5BC
BD3ABDA4
BE1088D0
BDC5B723
BD472331
BBF83F40
BD6FA376
BD85D41B
BD64284F
BC906BF1
BD4EDA4D
BDEF0B93
BE217542
BE684B86
BD598BA3
BD53B43E
BDCC7470
3D9DB01B
BD501EC2
3C0D77C3
BD74ED6E
BCE0D585
3D39FDDF
3CCC79C1
BD5CBEFE
BE389124
BDB51ADD
BD879D7E
3C924780
3D095B4C
3D9A35C8
3C361B6C
BD530D9C
3C6644B5
3D16C9DB
BD64A87B
BCB0B3C7
3C289BC0
BB6EA194
BE20F4EA
BD07B5A8
BD07E30E
3E07F609
3E2CB720
3DBBEF4C
3DC0547F
BD069466
BCBBF406
3D4B6928
BD13E3F4
BD92E98C
BB5AB062
3A54ECE6
BC1D21E3
BBFE8F98
3DCEDB67
3DCCA52D
3D844728
3CF664E1
BBF6EC91
BB86513A
BD05C214
BD1ACB6D
BCE6A2F3
BB3DB536
BC9ABF7F
3C610DB5
BD0FF723
BD10F59C
3D8E9D6A
3D3E30C1
3D7649D4
BDD22143
3D3667B9
3C8AF07B
BD931413
BD36EDE0
BC8E04E0
3C19F1D7
BC883B03
BD2A986F
BCCFF6F7
BD43DE3E
3C937EA6
BD0F155F
BDB0E5F1
3D26D8A0
BD78920B
3D0C6A12
3B4C99C1
3B83A968
3D4065B0
BD6832D0
BD5B860B
BD82C3C9
BDEB49FC
BD6447DD
3B555FB4
BD17F5A3
BD0F6D5F
3D9C90D0
3D93CA71
3CA6742B
BD20687B
3D092CA0
3D2D5215
3C823D86
BDAC2D85
3C380FD5
3C575FF8
3D33B128
3E6278AC
3E8E0F48
3E5F3651
3E948F5F
3E8DF302
3E10AD0E
BD2180A0
BCA4C459
BCEFE836
3D94ABA9
3CDA71A8
3B59D457
3E0F7250
3E96EE66
3EA6462C
3F1C755E
3F13C93D
3EE4133D
3EB37622
3EA70492
BB2B1649
3B6A14D2
3D5F8F8D
BD1369AD
BD785082
3D3FF5A1
3E84DB99
3EA92EFA
3EA4F901
3ED112A7
3EED7ED5
3EE855DA
3EC6AE8D
3E5418E3
BCAC0ABD
BB35CA18
BB74C1C9
BDF830ED
3CC0966F
3DAA73D5
3E64D110
3EE7D037
3E913B12
3E253D4C
3ED1BE79
3ED2836A
3E1F31E7
3C8CC3A8
BD3DA300
BD4BB642
BD850FF9
BCD8EFBB
3D004C9F
3B96FBA0
3E85CF71
3E4BCBC5
BDBF815A
BAE12E72
3D8D8AE1
3ED17DB1
3E061C87
BD988E88
BD85423A
3D092A71
BD4524F9
3D5AF022
3D80D83D
BD9AEE24
BDCEC390
BE567CE4
BE458B5D
3E249887
3E9AD6E5
3DCDFD90
3D96F192
BE15D82A
BD8864FD
BD1B510D
3D7386EF
3D22A6B5
BDDECC37
3CD98BD9
BE8714C9
BE8411D1
BE84A074
BDA9386A
3CAA5AA2
BBFA70CB
BE36133F
BD902729
BB9E0949
3D546A5F
BC63AD8B
3D0B4565
BD86E5CA
BD7D28E2
BD7E19EF
BD90B1E0
3C83AD81
3D2413D7
BD8F6329
BD9DA446
BE4551ED
3C7AC36F
3CA07857
3B767CAC
BD174B44
BDA1C1F2
BDA4E4C5
BDB9A50F
BE0BA0CD
3E048E61
3DB7FA53
3E342A2D
3CE2BA4B
3D9D63CD
3C326603
3BC4DC4C
3D3AEBF0
BD5BE2D2
BD6C89F7
BD5B11FE
BE21484A
BCD23000
3E332886
3E2BEC36
3E87BBA5
3E8132F1
3E8A0175
3E4EA8A5
3E174DF1
BD04345A
3CFC5273
BCA7D801
BC276118
BD360B3C
BD928402
BCBB44DD
3DFFA412
3D0E7D87
3E249352
3DD64E8E
3DE9FB21
BCCB9C42
3DA8EBB1
BC8EB615
BB6935C9
BCAC5CF7
3CBE22F2
BD2AF57A
BD19C201
BDB6E5F2
BDA791A4
BD0C9AC4
BDBF187E
BDE158CD
BD80DE0D
BD86E136
BD944A5B
3D2EE8C2
3D26F481
3D46B963
