BB913F1F
3D275CD9
3C073784
BD469963
3D5EC776
3CF2A2F8
BD561348
BBDB7C66
BCFA8AB6
BDC55443
BCEC428F
3CEA6252
3C48489A
BD7868D5
BD69A6A7
BD684B9A
3DB04D1A
3BF61617
3DBBD9EE
3D89BA4E
3D1567C9
BDB474A9
BCB04781
BD03F0D4
3D97D2DA
3D9DE493
BD282CFA
3CB3ECE1
BCE28ED8
BD1FC6A1
3C8AF056
3D3F91D0
3CE44A12
3DEF38EC
3E828DA3
3C62D4B9
3E85B55F
3CD24C9E
3CE56BB0
3CD36AD1
BD21B8B4
BD537507
BD133D5B
3D298631
3D09743B
BD4DEAA2
3DEB2A25
3DC962DD
3E79F325
3EAE9638
3DE0D763
3DA650E2
3BFBC2D9
BDCF069E
BE052D76
BD967DDE
BCC6EBBD
BC1CF652
BD110155
BD6DFBAA
BE40CCC6
BE98D58A
BEBC72E6
BE408638
BC7740CE
BDC2956B
BE431DED
BD174C4E
3B5F957C
BD67E0D5
3D751407
3C668B7D
BD22B3C1
BDA98334
BEB256C1
BEF8150E
BF055E39
BE779373
BE602B4B
BD287563
BDCB403A
BE40C1FF
BD1D725A
BD9D7B12
3CAC9CD2
BD0F902D
BC8F75B2
3DEB5632
BD12A4E3
BE98BBA4
BED3A053
BE225AA3
BE0C9314
3CB725C7
3DF36D3B
BE24740D
BDE2F53F
BC635838
3D4FDC19
3CC330F8
3D8EEC82
3DC7C1C8
3E67FC17
BC2AFFDD
BDDF0A1E
3C9FF922
3DA79FEF
3EE3C8CD
3D8A2B6B
3D819D63
3DAE3611
BD3851E3
3D03A1F1
3DAFF95A
3DDFE2A0
3E263BF6
3EA2DBFC
3EB01990
3E762958
3DE4255F
3EFAD047
3DDE2D51
B9352F3C
BD221D42
BE01A512
3AA0695F
BC679562
BCB3F82F
3E871BA3
3E8646F6
3DAA3C2D
3E12333F
BC200EBA
3E908C33
3E34E5F3
BE21BCD3
BC1AF477
BC49D82F
3D3A95A1
3C7F49D1
3D15A03E
3D660A59
3DB72516
3E4E3A83
BC1A2669
BD69D106
BE3C33C1
BCBE3A52
BE0D3C05
BE0EB441
BE4AD53C
BE03E3D3
BCE204FD
BD6E8809
BCE0263B
BD3ED3E4
3D81047E
3E020307
3E2EAE87
BDEF5A67
BE8B9A40
BEB39D33
BE807650
BE2F65A8
BE201EAD
BDF22007
3C75D2C0
BC9ABFD2
3BA4CF23
3D478265
BD0D1ED1
3D2EC776
3D4BB18B
3C660BA6
3ABA1C9E
BD8136B4
BCE9A7AF
BC9A88E1
3C122DAB
BD0057EA
3D66BBF4
3D255172
3CD6159E
BD10459B
BD52EE23
3D0B5797
3C769EFC
BC009551
3C944725
3CA9D0E2
3B94162C
3D5F3D4F
3CD4E5E2
3B56234A
BB75A8FC
3D6D5A07
BCC0ACA0
3BC60872
3D457474
3D4ADB9E
3D5A9B8E
3D1D6155
BD459E44
BAE804AE
3D653D42
3D258B3C
BD2B34AC
3C4861AF
3D01B634
3D342106
BD234E0F
BD4AF0F4
BD3C41FE
3BEA0926
B6159828
BC06B8F3
3D047A5B
3D6C32E2
BD7020C6
3D230DC4
BD77C831
BD286FDF
3C2E3389
BC1A02FD
BD6CB77C
BD39A7D5
3DA9B9E4
3DCC399A
3DB82F2E
3E191DC2
3E7603E9
3E671770
3DA4F200
BDA7A976
BE21B73B
BDD631F6
3C0F700F
BD1FED7C
3CE212D4
BBBEA054
3E0F51EB
3E4C09DC
3E7185AB
3E4C1E12
3DD541B7
3E0326F4
BDE088FB
BDFBC548
BE046B2B
BE726ED2
BDDABD55
3C9E87B6
BD2EDBE4
3C7512AF
3DA23CF2
3DBC9609
3E205D07
3E889F69
3E941714
3E3F2E28
3D41FBD1
BCD89BEF
BE78CD60
BE22CBA2
BDB90036
BD922D1B
3A1E3AFB
3D89C6FD
3E2166A4
3E866FE9
3E8B6242
3ECA1770
3EBF4956
3C88BCED
3E28EEC7
3E0732A0
3CC39D3A
3C9312DB
BE06FA69
BCCE7EED
3B442BAE
BD6A98BD
3E1A9716
3E3C5690
3D21C68C
3BD57426
3E5114D7
3E636D74
3E49807B
3E2B103C
3D593E16
BD38D6DF
BD7432E5
3C81C071
3D370969
3D0E749F
BE05CA20
BC9331FE
BD4C112D
BE05372B
3E0C4C38
3E5E3151
3D80AB4D
3D778BB8
3B942891
BD938842
BDEAC530
BCB04995
BD3B5693
BDB15054
BDA07A9C
BD3ECDE5
3D985C7D
3BD38A25
3E081688
3E59BFEC
3E195FC6
BD9CE3C1
BE495A1B
BE2A7A60
BBA32084
BCBE6CEE
BD1B0A50
3D4C3325
BD622C0A
BD0E5479
3D984EA8
3DC7C058
3E9343D4
3D095730
3E3FD7E6
BD586910
BD564B1B
BD2707AB
BD42DE78
BC2E461E
BD214269
3D85EBAC
3DCBE42B
3D86D2F1
3DF793E0
3D9D04C6
3D5D25C1
3D9303FE
3D7B2890
BE1AA92F
BE7BA558
BD83A91D
BB03FAB2
3D150CFF
3D1EA6B7
3B839F2B
BDAA2D25
3D171BB5
3D48D60F
3E5327EE
3E213744
3D2DEA51
BCFBBCD8
3B478763
BDB55C2D
BE0394AA
BD91F496
3C11213F
3CD9196D
BCBE77A8
3D96B985
BCA09DEA
3D175835
BC60D9F9
3E01985D
3D8C3A65
BC6B38AF
3DBD56F8
BD9E539F
3CAC1AAF
BD186957
3CDC9BB2
3D3CA16C
3D7BE8CF
3C733BE2
3DBB88B9
3E296EB9
3E3AFF2D
3D991260
BC1E0D96
3DBCC374
3D095D6A
3C80C320
BC579C27
BCEB3856
3D7377CA
3D75F2DF
3D0FADA5
BC4FE967
3CC84963
3CEFA5F4
BBC5C272
BD12F2B0
3C01DDAC
3CFC7DEB
3C8FC444
3CED476A
BD74C4C8
3D3A700B
3D0ADC4B
3D15973F
3C31D8E9
3D6A4D83
3D5E098F
3CE451D5
3CEADB63
3CABB008
3CA93B29
3D8B5BAD
3C8F73FA
BD87A981
3B1E281D
BD7FE9D7
3D649BF0
3CC92C0E
3ACBEBB0
3D8BD840
3DF5A5B2
BD752DA9
3D3E2C96
BCAD9E13
BCD77090
3D3D6BAF
3DE4A207
3D5E68AE
BBC4B8B8
3B76E800
3D21BC62
3CD9EF1F
3B4FDDBF
3D9C062F
3D4F2ED1
BDC10872
3CF637FF
3CB5A548
3E05895B
3E088D4D
3E20933F
BD8FDDFB
BB9DFF6D
BD9C6536
3CF21DFD
BCB900D4
3D13D1DD
3D12237F
BE2650E7
BD53209A
3CF807B1
3DC5AF33
3E6F6815
3E7DE806
3E220164
3DF2C693
3DA1F75D
BDE6E85B
BC8400E7
B93CBD8B
BD07CF6A
BD93AB9E
BE085B2D
BE21DD23
BDE5352F
3CE8B373
3E8C14F3
3E743399
3E5A93D5
3DEB0BEF
3D5E6F38
BD6C6A15
BC3E05FB
BC62C8F7
BD55B435
BDA64522
BEB5B5FA
BE927A97
BE9258B8
3D31338F
3E01238D
3E7FAEED
3D98C8B3
BD9D52A6
BDE81A69
BC1938D6
BD0AB1B1
BBF08AEB
3C9D5D44
BE2258BA
BEC3B8CE
BEB8710D
BE9AB548
BDA2D648
3E7BAE67
3E0C8616
BDB6C1B5
BE0CF3B8
BDC3272C
BC80E689
3D2F4099
BCEBEC84
3D4323CA
BD0B9CBC
BE689C34
BE9A435C
BEA380DE
BD24D7F0
3DD649F5
3D6F3D9D
BD4140F9
BD264A84
3E0ED5DF
BD834000
BCA8CDD0
BD1FB13D
3CE79FB1
3CED05C9
BE5337D8
BE7E6872
BE8687ED
3C2F63D5
3E25B437
3E096E10
3C87132D
3D84AAE4
3D97EDD5
BD4EEF1E
BCF1D1A6
3D6E8B2E
3D8E3AD0
3C9749D3
BCCEB201
BDF4BC57
BE1740BD
3DDDCF74
3E658D91
3DF5280A
3D680857
3DAB6DAE
3D4B7DD7
BC53FAB9
3C96F1F1
3D118CB6
3C29303D
3D32BE63
BD9DBD87
BDAB8418
3E67B1AD
3DC90CFD
3E18F1F8
3D86E7C5
3DE80DA3
3C898EFE
BCEA0DC3
BCBF771C
BD1FB97E
3C0E7B28
3CFD7803
3DB9DCB1
3E18B2F2
3D47415E
3E153BCC
3E78BAF4
3CF56780
3CD8E893
3DAFB467
39884D65
3D28BFFA
BC25E61D
BD331D6F
BD079474
3D6DD113
BC04CC3C
3D1DF3BB
BC8BBDFD
3DC3F6A2
3C9FDA5F
BD2B9F18
BCCB0B0D
BCD61B7E
3CC96007
3CED0B49
BD6F1F71
3C119494
BD66C725
3D75A8E5
3C04C68C
BC567726
BD754936
BD5FA448
BD1956EE
BD1148FC
3D476F09
BD40A702
BCF9014C
BCC5F0B4
3D1FEA71
3D10CD0D
BC9DE7CD
3D1210B5
BBFDFA87
BCED094D
3BFA5DFD
3D15D2D8
3D302BD1
3D35D671
3CE584E5
BD9F26B3
BCF3502D
BB98F1C9
3D27151F
BD0C377C
3BF679EC
BC0F4155
3C9BCC2E
3DA399C9
3D59113E
3E4ACFD0
3E47DDD6
3E668A24
3D5E0BCC
3D7B5776
BD3B4443
BD3A3A5C
BC8D4920
3CEF2108
BCD9FB28
3D89632D
3E07EC61
3E10A918
3D935461
3DF87D7E
3DE92692
3EA6ABF8
3E01062B
BA6A4671
3DA9304E
BCC6B368
BD40FDAB
3D658798
3C01FD81
3CDF41AF
3DFB65B0
3C6D4363
BD1A2F89
3E2FD519
BD1E2522
3DA5CD64
3C1717E7
BD86B7E3
BE4FC777
BE34425C
BE0F1D31
3D4B69CE
BD2E0666
3CF7184B
3D84B553
BC088960
BE282BA8
BE52BE57
BDAFAD22
BD9FB238
BD8FCCAD
BD4B06F9
BD892365
BD291D71
BD8DE2AC
BCA094CB
BD410360
BD9D97AD
3D811BB4
BD863C9F
BE3FBE4B
BE62C84C
BCFD0398
3DFDE98B
3E2D7835
3D4977F3
BDE14DE5
BDED2A8E
BDD6615C
BC8595D3
3C2F604D
BD459633
BE389D31
BE14FC5C
BD517429
BD123443
3D5A77D4
3E8D50B5
3E4B63BC
3D974A36
BE0921AB
BE06EE98
BCF003CB
3B91827C
3D636E58
3D0A805E
BB329157
BC727E89
3D8CA2E0
3D94DB36
3E2643F0
3E48DBC0
BB47FA69
BDA620C2
BD5EF4AE
BDE1EF34
BC1E915D
3D13EFCC
3D28694D
3DE88926
3E015340
3AD21162
3DAFC6C0
3DF119FB
3E2CD931
3D5E8745
3D225842
3C8D6489
BD1C51B1
BBB8D11E
BD7B4E0A
3D014EE5
BCDCEACB
3DD1BA90
3E7CF2B3
3E4B0C51
3E1FE1AC
3B1C1535
3D6AB571
3D60533C
3D66FC0B
BE10A296
BDE9E216
BD19557B
BCBC00C8
BD701030
3BF8E892
3C2DCA3C
BD3569C4
3D070675
3DAC159C
3DD47DB3
3D3335BB
BDC5714D
BCE56831
BD8303A5
BDCFA193
BDB0622A
BDC3DF15
3CC2F590
3D037F0F
3C721D8E
3E387783
3DCFAFCA
3D1A2E03
3E37BBE0
3D8BA1F3
3C36E54C
BD612BA4
BCD2939A
3C5C7F3B
BD3A7F9B
BCFEE776
3CB2B0DB
3BBD70A8
BCF703EB
3D05626F
3D68A2FA
3E052B6E
3DE1AE1A
3E16C8F5
3C5DAFEC
3D66ECD9
3D72A1B9
3D126FF9
BD863748
BC40DD22
BCAA8EA7
3D3C0BCB
BC1FEDBF
BD75CF02
BD49FA26
BD00F7CF
BD4FDC63
3D255AD2
BD46CBCC
BB15802B
BCFB7B94
3C97405E
3D4B0D30
3C93F640
3CEAA2E4
3D2FE8D4
3C9F9AA1
3D212D0B
3CED389E
3D928CA7
3C44D6C7
3D61753F
BD026708
3CE9048C
3DB54741
BC96AC7C
3B53FA7A
BCD040CF
BD14A1EC
BD6A0061
3CFC4759
3CFCC012
BD322E85
BB978181
3E192729
3E491367
3DA0CBF8
BBE4C9E1
BDB9E751
BDA80C11
BD93270E
3D2FBC6F
BC82C794
BD6A95A3
3CE9225B
3CEEB8CC
BD0DD28E
3E0E1D3B
3EAA5207
BD2110D6
3D1BE446
BE0D1E65
BE30EE3D
BE86394A
BE53A79C
BDEEE9E5
3C55366F
3B0CD37F
3D243C9C
3D67055F
3D7ECD55
3E24BAF8
3E709EF3
3DA0F58C
3E23F37F
3E28F56E
BE181078
BEA1DE45
BDE7720F
BDBF7641
BC9C6DC6
BD2C0AE2
BCF07DF5
3DAFD1F0
3EBC2664
3EA0AEDA
3EE60FD4
3E8ADD1E
3E833804
3E66D09B
3DCFD2D6
BE02EA0D
BE5D81E0
BE16720F
BD80BC73
3D169F63
BD00657C
3D8CA73D
3DC53DD9
3E155A93
3E6AB317
3E8A9D24
3EC60212
3EA74419
3E1315FE
3CCAB99A
3CAFC7DF
3D0795CE
BD2DF576
BCDCC34F
BB005AE7
3D0363DF
BDA8B622
3DAF5855
3CF8AD3A
3E2C8A63
3DAF086C
3DD8DDC9
3DDEFA0F
BD5CFC86
3DADEB45
3D379A51
3CA9F811
3CD93BDE
3D9CBE48
BD8EFDF9
BDC1E6E2
3DA9AE39
3D2EA41D
3D7EE84A
3DCAD7F4
3CADE2A3
3CF5D33F
BD93247C
BE1ADB37
BDCB8C2F
3CBC9A7B
BD061D86
3CAD06EF
BD68B3E9
3D9836CB
BBAD5CF3
BCEF8217
3E550CBF
3E8B29CB
3D3A834D
BE4E5A8A
BE1411E4
BE2984B5
BCD0085F
3C976457
BC961ACD
3DEB0F79
3D3FEF95
3E3FBC57
3E1EED84
3E283880
3CD6EA06
3BB8BA06
3E4B1B10
BDDD9872
BE35D4B0
BE0CCC23
BDA3CE4C
3D1AD80C
3D27B5AF
3DBDB277
3E79FA18
3E12FF56
3EA19DB7
3ECE10E2
3E7AE5B2
3E50133A
3DF51CAE
3CCD4C60
BDDC4112
BDB8A9DD
BBB73DA2
3D674261
3BA24DAC
BCDD9E52
3DEC15E9
3E5DFC03
3EA2D7D6
3EA07599
3E6E2907
3E181B54
3D1AD39D
BC0003FE
BA83AA73
BD8546C6
BCBABA1D
BD7308CF
BD32E8E2
B81355D6
BC69F95B
3BA7C512
3D3DC897
3CAD1FB5
BD7F215B
BC5944E0
BD0B9528
3CE6571F
BD6F83DE
BB9F09CA
3C9FB3CE
BD7B128A
3D1306E7
3D643621
BC0BFF94
3C936F88
BC76C485
3BD331D2
3C31F9D9
3CBF4E88
3D393911
3D722F35
3D6D2CE0
3D6CF329
3D1B3309
3CD5D5A0
BC954E7C
BB1B98FC
B9655875
3BEF8795
BBCA4355
BCF82F9A
BCB529A5
3C82C731
3CAF8CF2
3BFA0219
BD33910F
3C917A98
BCFCBF40
BCB39ABF
BD197E01
BC343174
BD045EE0
BB8C53A1
3D15284B
3DB79D81
BCA3BFAE
B9BEBBBB
BDE34004
3CAE4F1D
BCCB0A3B
3D1AB852
BD80CD70
BC55C99C
BA47C23F
3D2B2812
BD466965
3DAB03EF
BC90B59B
BCE1B515
BD407A93
BD3AA1EE
BD3F4197
3BCB99B4
BD172F8B
3C45993F
BC071A8A
3D3656E8
BB9AE443
3D3F0D11
BCEFA57A
3D1C5BC7
3D185C1C
3D2707E0
3C4C8A9D
BD6A4A10
BCACD28E
3C874C4A
3C8A8A8A
3C0E3A11
3D1B8A26
3C4AED9C
BB66838D
3D0F1446
B94EDF08
3BD5E774
BCD58C8E
BD17C34C
BC249AB5
BBF4C7EA
3D7F43FF
3CE1B03B
3D1DCF3C
BD378A13
3D013C93
BCBBCB9F
3CD49C30
BD07731F
3CB71944
BD10A29D
BC3D6F5D
BB8191AC
3D77FEE4
3CD349E7
BC853FFC
BD26D97C
BA5DF666
3B2E2801
3C2D9BBB
3D6A3F54
3D427C2C
3C988061
BD2FA566
BC93CD93
3CE2EF89
3D5DF559
BB27ADB8
BA0CB46A
3D5F98B4
3D8DFBEC
BD306826
3C5CAE9B
3CA52817
BCC89396
BD5483EE
BD47DF91
BC933162
3D2387B6
3D20BFC6
3C9F646D
BBC533DA
BD22C92F
BD6A80F8
3D7C6583
3CC80072
3C3F65D4
BC8AA93A
BC454F13
BC9426B7
3C3B9E44
3AA852CB
BC221248
3D140365
3C52E712
BB002393
3B046C88
BD3372C2
3C8FA48E
3D469CC4
BD37607F
BC49C4FE
3D484BE8
BC91B2C9
3D37E1AF
3D5EA307
3D688453
3CAF4818
3CA320E7
BD301C9D
3D7F5A69
3CFE34BA
BC9ED3A7
3CEFE2D1
BD16664B
BD682615
3D34E2F7
BCF0B6AC
3D1888D8
3CAFFF52
3BF35BAF
BD92F53A
3CA8892E
3D110474
3D8BAB39
BD23536F
3D500A93
3C4A0FC8
BC6ABA84
BD21486A
3B2FCA14
3CAC7354
3D010CF5
BD3E9099
3D3EC492
BC934AC3
3C5C0F5F
3CF7C5AB
3D4D5B2E
BD5384F4
BCDD00A7
BBB5BDA6
B99F04E1
BD6C1A6B
BD0D9B92
3BEECA62
BD602F09
3CD98FA2
3CE83781
BD5C34CE
3D055307
BD7D18B9
3C8D425E
3C4203F0
BD2FB6AA
3D56C6D1
3D3094D7
BC8100AC
3D77F88D
3CDF05A1
BCD2DE29
BD2CB070
3CB530AB
3B5B83D7
BD9A626E
BD308F0C
BD5DA7EF
BC86FADA
3D041961
BC594FD4
BD22130E
3D01DE27
BDA00357
3C3DF293
BD4BF1F0
BD7E182A
BC160DC8
3BFFA187
3D342F75
BD56064B
BDB27AC1
BC96320A
BCA37F29
BB8F677E
3D4B5DDC
3C635FA0
BA748958
BD88212E
3B6795ED
BD17386A
BD17703B
3C6808E8
3DFD6FC2
3E35B11F
3E7B155E
3D3072B6
BD5E1764
BBF35D7C
BC910EF9
BD79A7F9
3D2CF00F
BD170BAC
3C30FCC8
BCFE68A9
3C8421CA
3E07FF33
3E2C53E5
3E2BCCDC
3DB865CD
BCA34923
BD5CBCE0
BDA7DF20
3C90E6E0
3D002248
BCA0EBB3
BDBC5F63
3DAD368A
3C4D5059
3DC7CE30
3CDB0DE4
BD364E4B
3C40BF46
BE0D36BE
BE5A4588
BE06F384
BDF619B2
BD88AF9D
3D04799A
3C97C8EE
BC271889
3DD97178
BCC83235
3D89B330
3CE24E60
3CB33957
BE145D95
BE93C849
BE19D2F4
BE4103CC
BDB380D9
BCE443FF
BCC8E488
3CFA6667
BD72AD94
3D02D6F2
3D804D7F
3CDBA8E7
BD2419A7
3B1E93AA
BDC14F48
BDE4E177
BE429D65
BDE37388
BDAC8745
3D9070B1
3CFCEA41
3D29A422
BB18D390
BD801A8E
3AE42DC7
3E86E4D7
3E5625BA
3E608A5E
3DE0FF18
BC6912A1
BE68CC26
3CB0B7B0
BD752ADF
3CC6D0E8
BCFC57DF
BA0E52E2
BB0140B1
BD6FF3D6
3BF5731E
3E200DAD
3E932656
3E9A3A6C
3E50DCFD
3E06CF03
BD003878
BDBD7070
3D960D10
BCDB52D9
BD0658B4
BCF18107
BD8E2496
BD03D0A7
3C0733ED
3E0497E5
3DD05373
3EA79588
3DFBBBC8
3DAD3DAA
BE165944
3BD86C8F
3D41ECA4
BDC367D2
BD0867A2
3CC1A8F8
BD938F9F
3D4C82D9
3C34EE49
BBC56AEE
3D273077
3CD5FFDC
3CEC9831
BD3D8881
BE29CFFF
BCCDA3DA
BE1B4B0F
BD1F82BE
BCEB9626
3C8F8A92
BD82E692
3CA7B2D8
3C21790F
3A32A01E
3D3E6B66
BDF49204
BDC5CA1F
BE1729E5
BD97EDC1
BE380CD6
BD33CF9F
3C6572C1
3CF04D39
BDA06151
BD7AB37B
BD440740
BDA4F9B2
BCE99534
BDF790F2
BE4D34BF
BE203957
BE1F8C97
BD964A5E
BD57CEB7
BB1AE9F9
BD063EDF
BD65DDC9
BD3CE5BA
BC8AA9A1
BC75F50A
BC144165
BD2ACCF3
3D215D50
3D399AA0
BD83D1EA
3CC83CAF
3C65F1DF
3D0DE88F
3BF91793
3D05B865
3CCD1003
BD903B49
3D695E7B
3D2C75E5
BC317E86
3CD171CA
3CF86738
3D3755A5
3D034902
3D459902
BD45FDAB
3CF0FA46
BD07A418
BB09E6C1
3CE4C926
BCC4F58A
BCD07AE4
3CD1370C
3D75D7D6
BD281F12
BD9C4BC2
3CEA46A0
3D1AC545
3D342240
BC551B8F
BD32C363
BD58B189
BC423047
BD3E0210
BD18B426
3CE3D48F
3CA7139A
3D09D9B8
3E2D859A
BB9705FC
3C294DC1
3D21F9BA
BD96DE5F
BDFC9898
BE55008D
BE452F23
BDABE3F0
BD030203
3D624DA4
3B9A05FC
3D6D776B
3DB77E1C
3CC833D3
BD569E1A
BE2CE2D8
B8C5D53A
BDCF6C42
BE02CEF2
3BBD4CB6
3D08F628
BD2054CC
BD9819BF
3D09631B
3CC9B461
3D96AB47
BDB46F32
BE2E5151
BE7BD237
BE5B2797
BDC79EE3
BE05DBE8
3D4A8BC6
3E365625
3E35A230
3D6FC887
BD1789A1
3D1040BA
BC402127
BCC2C3B4
BE846A16
BE7244AE
BE0F3360
BE0F6ADD
BE14D234
BE7779B5
BE113112
3DCA505D
3D038E11
BDFEF236
3CC4303C
3C889A90
BCD2FC11
BD3D5563
BE31EDEA
BE692243
3D775C94
3D083DD6
3E68DB89
BD72A8FB
BE6029B5
BE347ED5
BEB2FEE5
BE3DDEAD
BBA10F90
BC9F7677
3D661408
BC6A0E85
BE204F40
BE5D394A
BD87697A
BDA11392
3D8C0A14
BDFE6E3B
BE9BA192
BDB50C48
BDD86CBD
BE00C312
BCB399BE
BD389C91
BD12F64E
3CA2201C
BE113511
BE987128
BF058384
BE7420CF
BDA90BA6
BEB6508F
BD8FF445
BC1AFBF9
BD580295
3D165699
BDA579AC
3D72C19C
BAA8470F
3D38D551
BC577D5A
BE7107B1
BEA7E237
BE8DF04B
BEFEA22B
BEA77179
BDBED54C
3CFC3B37
3DFEBC07
3C479660
BD96584F
3CC10345
BC063502
3CB8496F
BC222F90
BCFDD932
BE3B1B1B
BEF32542
BE86F649
BDDA9494
3E83C161
3E24F0C9
3E2491AC
BDD98FF6
BA9400F4
3D5147B8
3B931A12
BD19AED9
BE2008C5
BDC73B77
BDF60B20
BD80651E
BD4652AF
3BECD925
3E6FFA57
3DAEF6DF
3E04E708
BC9B1C3B
BBD8BD72
3A1E3131
BD060933
3D0327AD
3E647F3E
BD4EDF1C
3BD1B4A7
3C83643B
BDB944C0
BDC94142
3E1E97A3
3DBE900F
BCBFF79C
BD204E46
3D048493
BD5B75BD
3D75B023
3D18F6D2
3D619FAE
3D8BFC17
3D994D2E
3E0C8266
3D420DC6
3C1400C1
3DA44385
3AF869EA
BD90F42A
3C4D50F9
BBAB6E08
BB9E91A0

