3C7182E3
3CB71EAD
3CA708CE
3DAA39AB
3CB9D509
3D23C0D8
BC7620EC
3D276F7F
3D86AF80
3CC38E21
3D6A4A1C
3DB432CB
3CE22E48
BD4D1E6A
BC014411
3B46ADF4
393DDCC6
3D581E5B
3DA141F3
3E0A3B08
BE0D826F
BE5C3124
BD8B8F6F
BE408A24
BC0E19F4
3DBB000E
3D038BF1
BA47AEE8
BD32D7B8
BCBAA965
3D6DA7C0
3DBD66E5
BD41A8B0
BB7A2311
BE478530
BE740D75
BE28D867
BE842C66
BDE5519A
BDE2795C
3DBF330B
3C9508F3
BD0314D6
3D6A1E5C
3CB5F1B3
3D92081A
BDFB6403
BE4C88A5
BE5B7321
BEF68CA5
BED945EC
BE9DEDA9
3C895C32
3DA38CEE
BD9368CA
BDDDD152
BD66FF0F
3D515FE8
BBEEBE73
3D16280B
BDC0C85B
BE753330
BE7F5113
BE973888
BE8BCBA4
BE47C072
BC6257FB
3E31D8D1
BE026E11
BD182F9F
BBA80265
BD0B2EAF
BCD07232
3D801503
BB5460D6
BDD512FE
BE85D795
BC7AD708
3DF383C3
3D01151F
3D1D71D7
BC2D4CA6
3D9A60AA
3C8BC697
BBE11189
BD027E2C
3D04E598
3DB3ECA1
BD5E07B5
BE31AC32
3CDFC144
3CF8611C
3E29BE03
3E00285B
3E0709EB
3D2E80F3
3D55B1C6
BCB300DA
BAF4DBB6
BCEBDE81
BBEA0D8E
3DFCDB66
BDA80B97
BDFC1829
3E1F2250
3E51CD13
3E5A7CFC
3E1C595A
3D01FD03
BD639740
BC8E792D
3D81E1F8
BD1FF8F2
3D3FE47C
3D5A7D8D
3E1ACC97
3CA6B7BA
BD97A4F3
3E320DDF
3E2CC301
3E8E3FE7
3DAF7C03
BDC44330
BD9DFD09
3C8D8E2D
3C6897AD
BCC8F8F8
BD53EB66
3CE1BE99
3D80FC3C
3E0FEE42
3E809CB8
3D9E43F3
BCB9412F
3A85C3D6
3D9E7304
BD83B76C
3D1CC2FF
3D923CFA
3D79BB51
BCE3256D
3C8586D6
3D821E96
BDC922A3
BD959884
BD8E79D7
3E852A6A
3DFBB579
3CAF751B
BB32D367
BD8DB55D
BD8CCFE9
BD90C009
3CA878BB
BB9CFB74
BC271D90
3B33EBDC
3AACC949
BC851C8C
3A31A6F6
3CDBCA94
3D0401F3
3C6DFC61
BD7FC7B7
3D096F9F
BCC892AE
3B2029AA
3D425DB1
3CED775A
3D355D23
BCE76617
3D5AA2A4
BD1AAD18
BD1AB6F8
BD7FDD91
BCA3263B
3D6B380A
3D27E173
3B444EA3
3D635FC1
BBE9583F
BD5256A3
3D133213
BD558F0C
BD401778
3C8B1D6D
BC2BC004
BD38FB79
3CEB2B2D
3D81EE61
BCC9B15D
BD38CC0C
BD03CAC1
3D28943F
3D6CC6F7
BD63A1AB
BD2A6FF6
BC898EA5
3D494DBB
BD60F192
3D306B15
BD01D778
3D10E6E8
3D6578DC
3C169DD2
BBC73B05
BCF4BD9F
BC9B2B87
3D22184B
BD07AB58
BB82B4E6
3D478905
BD6C1751
3CA5B615
BCF63271
BB618E12
3BCB5365
3D92CF79
BCAA573E
3D9B628B
3CED1FCA
3CF1DED0
3D3A596D
BBFDE7D4
BCC3077F
BCD03685
BCAE450B
BCA0BE7A
BDAF8CBA
BE04A541
BE3665CC
BD664211
BC8E62E5
BCDD7532
3D200793
3D53139A
BCB724B1
BD0A783D
3D5AAD4C
BD5E8D3A
BCBE8AA3
BCB9E0ED
BD92AF9F
BDBBBF2D
BDE48284
BDF724A9
3DE37B7D
3E44F365
3E1C5E98
3DC4C8D2
3D426949
3D2A5479
3C89D225
BD1F0CEC
BD944FB7
BD97D650
BDAB850B
BDBF4BB0
BE22F1FF
3D07C3C9
3E050DB6
3DC13D8B
3E3D40CA
3D8F0D8A
3CE56749
3CE44E26
BD832BC1
3AE0F158
BD354B76
BE270816
BE2F38FC
BE24D7B6
BE3BA7BF
BE1D5165
BC36C377
3E5B1F47
3E0A50B7
BDFA8793
BDCDE40D
BCB4FF92
3B599B18
BCEE61FF
BCE53287
BE4DE8EE
BE99D3BE
BE96044D
BE223691
3CFF3FAB
3E2AE415
BD8A3DC8
BDB321C4
BD828C2C
BD9A53DC
BB0F1CDE
3D7BC1F5
BC49EBED
BDA98018
BE0B5371
BEC8E366
BEC0F35C
BDF28E1F
3D90A05C
BD31C264
BDB9362C
BD44DF99
3DD7DE23
BD3353DA
BD6110FC
3D021BCA
3BDCFD4A
3C1AA996
BDCE52BD
BE915D02
BE5B5D84
BE1245D3
3D602045
3D431119
3D3CC3F9
3CC9E594
3DA2A3E0
3D129877
BD54D4F9
3AA63C4C
BD94CE3D
3C4D6DE5
3BE78C2A
BD7EAD1A
BE05CAD2
3DA3F7B9
BD8890E9
3D8618A2
3E80B942
3E015B22
3D9079B6
3D594821
3CB6C984
3D401150
BD21DBC3
3DCA84C1
BD3BDAAF
BE00A6FF
3CB94523
3E698C33
3E7959DD
3E55AC7A
3D90E804
BDA9A9C0
BCC86821
3CC45AFE
BD147376
BC5D66C6
3C287701
BD4C8E0A
BD281393
3E1C3F3B
3DD9239E
3E35B52D
3E22744C
B7589D00
3A88E11D
3DA2667A
BDA81C67
BA28060F
3D57D92C
BBD140D3
BD70BF60
3B31B558
BDDEF9DC
BD5C4210
BDDF3F7F
3D2E68CF
BC1D98FF
3CA1A007
3D91FA52
3C860A54
BD97DADB
3C5F4AE8
BD365E45
BD1F66EB
3CB4F34D
BD1B21F7
3C6B7199
BC82EB62
3AF832B7
BD8A297A
3CE214F4
BD41FD85
BCF90BD5
BD075E52
BD2751B9
3D0FE9FC
BBD5122A
BD6D769C
3C9D96FE
3D3134C8
3D8AB60D
3D94FFE6
BC82C6EC
BCBA70C3
BC8A5E60
BC47F648
3D859861
BD32E06E
3D015CE3
3CD5058F
BC3FA72C
BD444F7C
3D266D7C
3CB83F5E
3DA2E777
3BDA8254
3E042621
3DF0A794
3D30EC6A
3B2A5284
3D1ACEB6
3E1DC657
3D739C9B
3D51F26F
BC8A7517
BD1B4455
3CFF560D
3D7E1E54
BCEF4A55
3D94C7FD
3D0EA8EF
BCB367D4
3C8C1442
3D556F6F
3D084089
3E2AE16E
3E138063
3DE1A2E9
BCECC807
BCA083DF
3C239CF1
BBBE9E4B
BC9CAB32
3D7B19E6
BD901493
BDCEE6FC
BDCD046F
BDF6B3C5
BDBCBDD2
BD3C3356
3D6D19F6
BB6541D8
BD08B497
BC22AE05
3CA9619F
3C3BBDB2
BCAFF05C
BBDC7424
BE0E9780
BE1CA3EA
BE2BE75C
BEE015F8
BE4FFA22
BDD92A61
BE10A8DA
BDA38AF6
3CDB701B
BD5ED71C
BD1912E4
3D6DA365
3D3AF673
BD12361B
BC66AD22
BC67CA3D
BEC51E03
BEC01F39
BE59F9F0
BD44A026
BE0DDE1D
3D0E6A70
3C94FB0F
3D46DD3C
BC281863
3C1FD68B
3DDA336F
3E4208F3
3E0FABBC
BE1BA337
BE5D8313
BE788B37
BE05706C
3A476D2C
3E2C60D9
3DF42E4C
BC064E89
BD005464
3C6265FB
3DA243A9
3E4362E5
3E4E4CFC
3E40A815
3D884C89
BE5EC74A
BE198AB2
BCF36B66
3D8D5874
3DDB4C55
3C3A3F9F
BD12BEE1
BD4E30AA
BD8767F1
BBCFAAD3
3D635691
3E588729
3E3C1F66
3D120760
BD04703D
3D17C10C
3DD66D12
BDBAAC9E
3D5A5933
BC3E9FFE
BD851587
BC83D52B
BD48EB97
BC6C409E
3D8E5744
3DF4E0F4
3E047088
3D80D67C
3E13EEC4
3D9AD558
3D38C7BE
BD82829F
3B317BB6
BD886ED6
BC250163
BD43D5AD
BBB68F79
BDB9F884
3C94DE30
3D6821F1
3E04D640
3E7E45BA
3E3360EE
3DA9AC6B
BD12A919
BCFE368C
3B3FE3C9
BD3DA5B4
3D20D62D
BD568BC3
BD4BC4D6
BDACF81F
BD135308
BB84EDD1
BC61B973
3BA4186E
BCBEC84D
3CBDCFBE
BD9C814A
3BA91552
BDF6513F
3CB9FF4F
3D153C2E
3C0BE1B4
BADF92DB
3D4F35E0
BD0696E8
BD578C79
BDA48A08
BD82C03C
3D4F2D55
3D3FE7BC
BD9903BC
3CDF86E5
BC2F1FAA
BC53AA11
BD2D35CA
3CCFAB06
3D4DBBB7
BD32DD29
3CDB8317
BD29D7AC
3D13B826
BC0478ED
BD014A1E
BBB1360D
BC9FE1F0
BCD9E86A
BC0F1B44
3D26E32A
3CE15996
BD2AD632
3CF4FDC6
BB3390FE
BD1145E3
BCBB345E
3CDA29D5
BD17BA22
BD77372E
BC1112D4
BD55EBF9
3D09968F
3D49A5EB
BC5961DC
3D5BCE3B
BC5538A6
3BB6E9CE
BCB85CBF
3CA4146C
BCB78C25
3C8EA922
BD164129
3BBF9459
3DE8C2CB
3BCC4CA6
3D3CD822
BBF27F0A
BBF14073
BBF73CAF
BD34C83C
3D30C854
BD54D3E5
3D356178
BC8F9C6B
BE090F46
BE1E8F3F
BE12E4A9
3DF50557
3D43D62C
3C23CB9B
3DC93222
3B2F6091
BD09455C
3C688506
3D34D2D6
BD855E37
BD24E536
BE1C20FD
BE8DBF4C
BE2C2653
BE22B99B
BCEEFA94
3E1DFF30
3DEA5605
3E0E34AD
3D53CEED
3D79BC28
BC3479A3
BCB199E1
3C792841
BDAB3CD9
BE0769F6
BE8C8E79
BEA0A241
BE2091B6
BD0FA54B
3CC78EFF
3DD7E6CE
3E0462E0
BDAD6D86
3D171879
BD2BD582
BD115F2B
BD6CC638
BDF1E706
BE7B8A8F
BEB3AB04
BECC5D5F
BEB009AC
BE0BFA58
3DFBFEAE
3DAB9809
BDD58172
BD79F396
3C8A9F0A
BD761552
3D5EB8DB
3D04B588
BE3968DF
BE022892
BEC92088
BEA7146D
BDEC7C9D
3E36B408
BBE8813B
3D00CD31
3DDAFEAC
3CAEC080
BD7B5A71
BD2FE9E5
BD16FE47
BD22F448
BDF4CFCC
BE4DF95C
BE3C4448
BE470E98
3CE8FFBA
3D43FA00
3E143861
3D743428
3E31CDB3
3D93B295
3BB032EA
BC829658
BD8F7D9A
3BDA5741
3D6957C1
BCE7C2EA
BD78FE7D
BE439539
BB1468E8
3D5F9034
3DFD086A
3D564C78
3D9AE286
BC9458B1
BCC28A6E
3D556E6F
3CB5F818
3CA5911D
3D99E90F
BC139C84
3E564635
3DE8FEC6
3D96D3B4
BC248F62
3E1D81FC
3D35A4E1
BD5F98B3
3BDFD804
BCF430AB
3C818696
BD40E08F
BD8939E9
BD23A664
3CB349E5
3E4D15C9
3E626BE8
3E9FBEAD
3E4917BB
3BA04C4A
BDA65E3F
BD42D64D
3C236CA0
BD7F7F25
BD1D9891
3D08D371
BE0513C1
BB66FB65
3E78E6BC
3E08458C
3E85D741
3E8AF570
3CF72222
3CDFB905
BC7E4AC3
BDEC0DE2
BC65329C
3C374666
3D1233B3
3B997FE3
3CAC59D4
BDB29C9E
BDE4CCC8
BDB6D45C
BBAC3143
3E011436
BB906F71
BD21A133
3D2A7D83
BB341E0C
3C5847D5
BD02CAEB
BD30BB60
3D1C27CA
BCE23814
3D558DDA
BD2E5D91
BB6DFD47
BCDEFDB0
3CC0C2D4
3CD3E875
BCF373C7
3D44BDB1
BB27C1D7
BBFA2B81
3D3310C7
3D55A27D
BD18572D
3D79E1EC
3C31BF29
3BB637E8
3C43F360
3D30F769
3E2B8395
3D643DA6
3DEAFF33
3D7A2990
3D4D6083
3BE5D4C3
BD3D2BD2
3C3CD3C9
BC534EE5
3DE4DD52
3C122B36
3D858255
3D810455
3B6D8EF8
BDE5F021
BC256B4C
3DA35819
3E32E5A2
3D1ADEE5
BCC544B2
BCC79E1D
3CFD88AB
BCDCBD73
3CEDBF3F
BDD51FE5
BE461417
BE7F5859
BEBA7DF0
BDE21856
3D007B83
BD9A3C00
BCCD598E
BD282A89
3D9CE3D5
3C697704
3D36FEE4
BC3B3DD0
BDD433CB
BE2B5102
BE46892E
BE51F6EC
BE05A475
BEAAF535
BC649D0F
BD0BB0C8
BC8C14A9
3D0A9B1A
BDCF0EEB
BD846B6F
3D5A76D2
BD1BD300
BD883071
BE13EFC2
BE0ABFF0
BE475D55
BDB76E60
3D31E87F
3D81C823
3E3000CD
3E0A2235
BCBDC13D
BD7F3A36
BD745845
BD194E25
BCCB6093
BE10068E
BD66B5D7
BE80C2B8
BE2EEBF0
3D6FA2A5
3E69BA2B
3E9D680B
3E781295
3E0F5AF8
3E0F8235
3C32A1BF
3C8FCE04
3D08B154
BDCF1CCD
BD213E49
BDF4F741
BEA0ACEB
BDBD05E7
BDC5CF42
3EDC74B8
3E976041
3DDA7F2F
3D3B80B0
3D455207
3D0D3D07
3C8726F7
3CDDCCED
BD46E323
BD2F937D
BDE7E1C4
BEA7506C
BED19DFB
3E07209F
3ED8D783
3EBB2BA3
3C0D6D90
BB380B6A
3C840FD3
BD8A1B09
BD6015D4
BD3381C6
3CB5F491
BE391EF2
BD8C2320
BE55CA7D
BEEA5DB7
BDDBA033
3E3A77F0
3E069DCB
3D555D20
BB94A001
BB149CBB
3CEFB6F4
3CAF51A6
3D38408F
3CE350CE
BE173201
BE151A3D
BE4EFDC6
BDFD2537
BD8B46B3
BD41C8CB
3CC6AEFA
BD8926E1
BD478461
3D4694BE
BD30B4BC
BC98C51B
BD78EA8B
BD096A73
BB62E6CF
BE0F317D
BE51980C
BE215B49
3D9A0070
3E5B86CF
3E2DE0CC
3E4BED9A
3D124677
BCF82CF6
BD29AAA8
3CA414FA
BBF7F452
3C46F9C4
3CA59095
BD48AC3C
BDA4C1FC
BC9E5F93
3D62C3A6
3E6147BA
3E1C4B03
3DEB0AFD
3D73EE3E
3C5FDF3F
BCFE37AF
3D0B365B
BD601EC8
3D261B8C
3CC285B5
BC2465FC
BD5FEF9A
BD19C81D
3CD4BDA8
3D643516
3BFCBCBE
3D05383E
BD77B4DC
3D036F3E
BCD9CB36
BCB1C370
BC6B2799
3CCA7726
BC97997C
BD22772A
BCD16536
BD77F120
3D0D953E
3D2A89CC
BC1BE947
3D51EF04
3D7D6E3C
BD22A42B
3D315789
3CEEA136
3BB19390
BD15DBAC
3C3BE2FB
3D5DF633
BD2E7AFA
B8E0C3E1
BD3B8CA8
3D6E5602
3C6FE664
BD72654F
BB9F0459
BD044C9E
BCD1E99D
3BCEEF00
BD1A982B
BD434CCE
BD2EE5BB
BCB4A7CA
3B805F86
3C19B00C
BC3A40E7
BD10BB13
BC79EC0E
3B6EC8E6
3C228AF3
B9901FE8
BCAB9175
3D71123B
3C8656A3
BC95CA31
BCAE9DB2
3CD11E2E
BCC5A3DF
3CB82D66
BCEC5AFF
3D160914
3B8C2402
BD2762D3
BCB17FD3
BD92FECF
3CDA1E1C
BCFF6327
3D3BC47C
3D121156
3C83C867
BB90EFFE
3B231401
BB177F4A
BC83D0BA
3CD20D09
BD65ADEB
BD3E7E44
3C8640D5
BD626AE3
BB71043C
3D42DAC4
3C921701
BD7169F1
BD12CFAC
3BC5B944
BB335D03
BD3F4E40
BD372245
3D21B1D0
BCCF5841
3CB75D22
3D0FCFCF
BD3C922F
3CFEC2CC
BD2FF37F
BCE0B98F
BCDFB863
BC8A8CB3
3D1F3933
BC192CF2
BCEA9A1D
3CC781A0
3D21E0BC
3D49AB09
3C1F925B
3CA4ABA5
3D3ADC8C
3CEA44E7
BD48A7BA
BD3F5401
3D17DB2A
3B43D1E5
3D77DC54
BC9D709E
3D7393E6
3C81177E
BD6300C6
3CE7388A
BCA79F6F
BD2F601F
3CFA4D09
BD3C8E12
BCB90469
BC3A1EED
3D4109A7
BC7A8BF4
BD62DC93
BD1C01C4
3CCACBDC
BCA31C11
3BA66D11
3CE0C897
BD0BC24C
BC18C32F
3C3136B9
BD78EC09
BC8AB9D1
3D3A0CCC
BC3007D5
BD1B79B9
BD6780A5
3D4BCA07
3D353B83
3D36DF34
BD5B6BBC
BD771B5E
3D2FE280
3CA6E0B7
3D1DEFC0
3D613A7B
BCE3CE84
BD27D37E
3BFD6627
3B1DD54F
3D70360B
BD27FFB2
BD211B86
3CBF2A3C
BCDCB3AC
3D308B75
3D383BD4
3BAD3BB2
BB121CF3
BCBB9E1A
BCFBCA6A
3D227240
BCC50B92
3CF424F4
3BEC01BC
BD37E4EE
B91FBDF2
3B9FFAE2
3CE4F769
3BC07CC3
BD60D11E
3CE19CDF
BCF8EE6C
3D4D1B77
3D55EE9D
3D15C53D
BCA1CC54
3CDAF349
3D626A47
3CDF39FE
3D72CA7B
3C0ECB01
3D6D21D3
BC05E336
BCC1824E
BCE533B2
3D75D918
BA9C3004
3D16F2C5
BD1ADC95
3D3A8538
BD101FCA
3C25C7C9
BCCC421A
BD4AE14C
BC45CBAA
BD1C99CC
BCC38E65
BC4E319E
3C63C8EB
3C8A7656
3D7476DB
3CEEA0AF
BD26AEC5
BD49474F
3D5F482B
BD735CBD
3CF96F96
3D10C026
3D14214D
BBAB69A4
3C8AF958
3D19209E
3C1B82E1
BC79F904
BC542FAE
BD4773E8
3D5B6151
3CA02AB9
BD5C26F1
3CA4A9E7
BD198E24
3C02E954
3C7605DD
3BE5363B
3CF5A6B1
3D42149A
BD348114
BC16010C
3C909EEB
BD403CB9
3D2C57A7
BD593B74
BD1AB769
BC5A2266
BD9C243A
BC276A29
BDADB302
3BE98409
3C88FADE
3D13B07D
BD32F7B6
BD795E4A
BD5202D8
BD7F04FD
3D27E56B
BBD5D2EB
BC340565
BC60E4F4
BD86F063
BD818E78
BDE112C6
BD30564F
BC7C9E15
3D22B412
BD71C272
3D04FAEC
BB7B230B
3BCCAE24
BBC3257A
BCBDB101
BD7E9E76
BA5B9140
BD694B49
BD7680D4
BE202C18
BCBD4D44
BD07BFEF
3C8FF9D5
BD0B666B
3D02E129
3CBEA8B3
BCB45F06
399CE25A
3D210D7C
BCD256FE
BD350A36
BD9ED4C7
BDE70A7B
BD36892E
BD38EC1B
3DAA1EED
3D8871A9
3D681D33
3DC44D7F
BBE846F1
3D265049
BD759078
BD5C8596
BDCFB669
BDA42FAE
BDC37761
BD9A50AF
BDECE955
3D13FB8E
3E36F226
3DB9C39B
BBD86E41
3D72C4A2
BD61C57D
BD246D04
BD7D2167
3C8BF703
3B676BD1
BDD78CFE
BE00CDB4
BDE3B0BB
BDD8FEA3
3D535855
3CB80656
3CB8EFFF
3C70C725
BC41F761
BD14ED5A
BD4ABD5C
3D2DA3E8
BCE6585B
BD20B503
BE048F21
BDA9378E
BD386C61
BDEAD63C
BD69384E
3D3719A4
3B7AD8E5
3D0A1D4E
BD2CCDCE
3C8A3DAD
BD33CC25
BC6F6B10
BC394CBE
3DA9B9A0
BD942FE7
BD33E696
3D825A73
BDE1BDC1
BD612C43
3DB078B0
3D0B6C11
BC36253B
BD8065BF
BD179E1B
BD7C1140
3D2748E5
BD2AD937
BD814411
BD3F9836
3DAD6387
3D0C08C4
BD09171B
3C1AAC67
BCFE54E6
BD1C2D36
3C472C54
BD0A50D8
BCAF4A48
BCB123D6
3D35B10D
3D2FA08F
3DCB9BC8
BBC434D4
3C39B745
3E695945
3E2DE499
BD07806C
BDA5AFF9
BE20775B
BD218746
BD984513
3C738B30
B8C640FD
3C81735B
3CFD5F4D
BD64B8CF
3DE73579
3D6A3785
3DAFD148
3E22BB4E
3D2B9C61
3CCF00ED
BD664D8B
BD302FE8
BD1F7E73
BC0FA8B5
3C44B2A2
3D1F13C5
3D3793A0
BD863CDA
BD38D951
3CAFBC83
3D187446
3C542B6E
BDE8ED7A
BD1DEDDD
BC95B034
BDAFBCFF
BD896976
BD44B807
BC964DBD
BD31CFDF
3D44E9F1
3CAC742F
BD1E8D6B
3CCDFA3C
3D439701
BD2CAD7F
3C8606C6
BD196F3D
3CA0A227
3D460873
BCF83307
BD01E0E2
BBD4E8D7
BD264867
3D0393B7
BCF35262
3D295F3D
3D00B7B4
3D9665B4
BCB58A11
3DD63BCB
3D165E2E
3D65D7A2
3D9836AD
BD264554
BCC1726B
3CEDEDAE
3C83809F
BC927972
3DCFD6D2
3DDB2CE1
3E69B4B8
3E2B2562
3DAA715F
3D742231
3E1F10DB
3E408312
3E55B467
3D956ACD
3D6E4D69
3C13DD13
BCF438E2
3DA1FE4C
3D682708
3E263390
3E728AD0
3E211EC1
3E2FFC68
3E154A18
BC2AAC07
3D852989
39A71011
3D14AD20
3D06BC22
3B48D4D2
BCA8B9EA
3D552EEC
3D54128E
3E3096F3
3E057982
3DF15592
3E2E05D2
3D62D1C2
BE2F0197
BD2419A7
BE406621
BE01EE6A
3D40B8CA
BCDD17DE
BBB9F439
3DA2404C
3C9D730D
3E570EDA
3DB4A96A
3C772F1C
3CC7AFA7
BCA7DC6A
BE655184
BE6DAB4D
BEE7FC57
BE81B98E
BAA3B908
BD2B3F4C
BD57EAA5
3A49BD3C
3DF8F0D7
3E7ED3D0
3E2CDE4F
BD1E7AF0
3D767E27
BD9AE9E5
BE9058B5
BEA5A34E
BE64AAB3
BD4C3D6C
BCA5C925
BC5454C1
BD1B5BF4
BC90A96F
3E85993A
3E7F3429
3E83BD98
3D8A113F
3DD4D0B0
BDEE7443
BE0C262D
BE0B9126
BDD49E94
3DF3E11C
BD1267D4
BD1071F2
3BFDDF1D
BCC042DB
3E493FDF
3E87B563
3E801A75
3E9F2B63
3E432FCF
3DED0DCE
BD7B8400
BD58C9D9
3E2F68A0
3EA6C1C3
3D788E95
3D50B294
3D43ECD1
BD84D99D
3DF7CEE5
3E4BEE15
3EAD54E2
3EB3F969
3E7D0A96
3E229639
3E0E8300
3DDCC673
39276184
3CCBE72F
BCC2A19A
BD64F4D9
BBB64824
3AA23F21
3BD260D3
3E0B0209
3E7E2B10
3E8D622B
3D6B79EF
BD958266
3D9726B4
3DF2830E
3E0418E1
3CA58D85
3CA8BB6C
BD2D228B
3CF4BE3F
BD5A1972
BD051E43
BD1A24D5
3E2CDADD
3E2A1010
3DEECCB3
BDD2954F
BD1744B0
3D82DEDA
BD1409C4
BE00FE8A
BD762DFC
BCB22469
3C2176F0
3CFFA9A6
BDC9E8C4
BC93EF3A
BD0D7526
BCD67AFF
3D091373
BE95E198
BE42FEF4
BDEB4CE3
BE4FF7D1
BD95C792
3D63AE0B
BC30B967
3C94E432
BD054797
3CA538E9
BDB65827
BD84A156
BE1E3403
BDCE1CF1
BE1969E9
BD99AE40
BC6C34A8
BD4D8528
3D11A10C
3D35D704
BD2C110D
BD64E7AC
BD429A40
BD1A1716
BCF91A73
3C5E4345
BAA6ED24
3D0099B4
3C52564E
BD4A87EF
3D6DA35A
3C3810D9
3D267254
3D51B233
3D0C4455

