BCBC6052
BD4C33D4
3D5FFED0
3D62B576
BD4DC870
BD022B30
3DC610C8
3E31D1A5
3E183EAA
3D6B3CB3
3DF0EA9C
3C8EB565
3C6A82F3
3C11102F
3D38B226
3C6F0409
3C588826
3BA7C8F7
3E07189D
3E0210A7
3DC688C9
3D05FE8B
BB241FE4
3CFB5977
3DC89622
BD8C4CF4
BC829A27
3CC4546A
3D8A803A
BD5E579E
3D97A197
3D2E4D3E
3DFACC17
3E2014A5
BD3263F6
BD74C14D
BDCB4272
BE38FA46
3C1BE7B2
3CAC196A
BD9B259E
BB6C137F
BB8CD3CB
BCEE4072
3D842A28
3DDE8123
3E2C6363
3DE802B4
BDC97040
BDDBE439
BE040C99
BDA69F63
BDF19FAB
3C4B234E
BD119FA4
BDA0F164
3D3CCB0C
3D8A78D1
3D8A283F
3DA65BFF
3D8E7DD1
BCDB9966
BE21C3D9
3D5F23DB
BC5536B9
BDD03C7F
BE61E32F
BD309E36
3CBCCBC1
3D2D2411
BCC9A675
BD2B6514
3DAC13CF
3C916B5A
BDB3C265
BE385A19
BE24F3A5
3DAAC2F7
3D95137C
BE4AB161
BDCB8722
3D625D7D
BD79F23F
3D572C7C
3D2EB793
BC05D265
3D944694
3CEE4DB0
3C3BFDDB
BDE980BC
BE439CEC
3DE08D04
3D9C3276
BE354902
BDF40AEE
BCCB40E6
3D12B778
3D107400
BC96BF51
B8D987C3
BD0EF3EE
BDC45CAF
3BD7B488
BE043373
BE46019F
3D8AED13
BE0C147D
BDDD5A8A
BD117F92
BDCFDEA0
3D25DE23
BBA0BC64
3D601B62
BC89BF4A
BD1D2B70
BDDA3200
BD816523
BD82EB40
BD7CE6E4
BCB9E819
BE0D65DE
BC2FF8E7
3DD8ECF4
BD8CF1CC
3CB3FFE5
3D3A13DB
BD5EB3A1
BBB77EDC
BD8C40A2
BDCD9E3E
3DDFFDF9
3E181E78
3DF8BB76
BDE5B270
3D0D5F0F
3E41759F
BBED7E7B
BCB42517
3E283EE9
3DB2B76B
3D013F72
3D5477BC
3D50DF0C
BAD59491
3D9B3BC5
3CC03E1E
3D85A261
3DA1D1D8
3C95B036
3E194F94
3E6D353D
3D8EAB94
3D823259
3D88523C
BBC73DD7
3D817B2B
BD5A9DBC
BC1812BB
BD3BD9EE
3D82FACA
3DB76CDF
3E244166
3E2101FD
3E28DE19
3E2358CA
3DD73022
3BA316B9
BD4A46D9
3D3CE49C
BCAA633C
BC8CE4F3
3D8CA79D
3D87A05E
3C1CC86D
3D255885
3D096497
BD12174C
BCCA1ABB
3B9EB440
3D826CB2
BD378D0B
3D03A6FF
BCEABC3E
BD4940A8
3D86A498
3CD2A95A
3CF1A9D5
3CBE37A2
BC8A6B91
BC7F2A8A
BCA0D3F9
3D6508BE
3D38A312
BD120016
3CD05C92
3C5D9429
BCB35A58
BD268568
BD29DCE6
3D713ADF
BD551B29
3D7C33F6
BBE2352C
BD033E03
BC17ACFF
BC86C079
BD36AAE9
3CAEF6F6
BC569CFF
BD2AE870
3D56D6E9
3CC67E93
3B8DB2E0
BD1F2BCD
BD60F097
BB68FD6D
BD02C815
BC6017A2
BD141609
BD3B88AD
BD5C61F0
3D1BA53E
BD39678E
3D480E6D
3D0AB8B0
3D790AC2
BBD3D921
3C354111
3C312176
BDE9ACDE
BE2F0276
BE4FD89C
BDDDA856
BE17FFFB
BD2909B7
BDAAF0A7
BD35B327
BC38ECB0
BC9FC12D
BB9786FE
BCE891C1
BB32EC42
3D7357C2
BDF0D307
BE500767
BE864E1A
BE9F8801
BEBA85F2
BE53D22F
BDB204ED
BDB596E5
3D1269F8
BCBB8CB0
3C21A54F
3C434AEB
BD7CAEE4
3D4DC08A
BD1817E4
BD09AD49
BD477FCE
BE8D0CBC
BEA5C4C4
BDF16339
BDA916C1
BE2F699F
3CB3CCBB
BD36B7F9
3D477636
BD624797
3D9A5780
3D92FD6E
3B308918
BDA76936
BDA0444F
BE223051
BE710F3F
BD4F956C
BA58E44C
3C690C48
3CCC6E9C
3D50968A
BBB531FC
3BEF3E5E
BD684A1F
3C624E60
3D1C4D3D
BE2E00E8
BE5CC00B
BE3A63C6
3CD08707
3D6CB418
BD15A0FD
BC1725C5
3B427774
BC400436
3D651490
3B0DDA58
3C314577
3D9C2094
BDBE9A4F
BEB2B4A1
BE3E030C
BD41BBFF
BCEC9B35
BDB33C9B
3D0631E0
BD4F4330
3CC65FB4
BD025B94
3D2CBFC2
3C98E582
3DE9C56E
3E16313B
BE087DC4
BE12FA83
3CF80DEB
BE2B53CD
BE3C5728
BDA06B00
3CCFAAA3
3D5FBFCE
BB3CDB48
BC937ABF
3C35C44D
BBCB4096
BDB57394
BDCB4F64
BE0D3A05
BE033AE7
BD95D95D
BE406B16
BD49B411
3DA4BD26
BD579EB2
BD79438D
3D1BFE7B
3A3B181F
BD80D82C
3B6C127D
3DA886C9
3E9E9C69
3D6CE692
BE0EDDE6
BE225F37
3E05BE1B
3E9A4290
3E4C1088
3E1EAA20
3CC63E12
3D0FBB51
3D4DD80D
3D38C35D
3DCE38A2
3D95FD20
3D1FBB3D
BDC84CAA
BDD92F10
3D5A1138
3DCF8985
3E1E53D8
3DE189C6
BC8D4251
3D87B705
BBB7C245
BC4E027E
3CBDFF0C
3D36359A
3C077044
3DA637DA
BBB8E9A2
3D907C7C
3C31D02E
BD11EFF0
3D96C9ED
3D0DE312
BD1B9185
BD9D2B48
3C8A6EF2
3D7125B5
3D6DA873
BD6A513A
3D6F7E6D
3C55D176
BD52690D
3E03D6BD
BB50FF15
BE0D616A
BD734068
BD29847C
3D5BB979
3B7019A8
3BA24A42
3D5E51AD
3B61D1B0
3CB54166
BD27F93E
BCEFFC57
3CA58691
3CD68C8B
BD0AA54A
BBBF7594
BCFBF0FA
3C08B9F3
3D0DE6D5
3C5B9DEB
BCF1CA1A
3D3F64F3
3D3305D8
BD28B30E
BC909B59
3D364AB6
BD0B70C1
3D8C4D8E
3D12BBDE
3D9236E2
BC215EED
3D03FB85
3D521702
BC2A2DB0
BC410CD0
3CAC99FE
BC132F33
3D049397
3B37F431
BD8EC01D
B9817838
3DC56178
3D0633B9
BCE7268E
3D832A75
3CD02953
BD3FD44B
BD604426
BCE313B4
BC776515
3CEF8F58
BD7A92C3
3ADF7020
BDC62550
BD137CC7
BD86521B
3D3027B3
BCC54CB5
BB73BA6A
3D0804DB
BCA87CE0
BD33D34F
BD75B0AF
BC33AACB
3D3C977D
BD6010E2
BDD527C9
BE012137
BDD3E843
3C81F172
3E80C77B
3E278B2E
3D3CF4CD
3C06D6F9
BDBAF904
BDB09A7E
BCE4F6CE
3D77B135
BC034973
BC957DC0
BD8B7488
BDCABC1B
3D305EDA
3E133382
3EAA355F
3EAC8732
3D92A7D6
3D1FF8A8
BD6B4C5C
BCA6D073
BD217DE5
3D42DBE4
BD2E20ED
BD90BEFF
3B8DE93F
BCC6A2E9
3C69DA51
3EA3239F
3EA27C5E
3E91CC21
BDBE4ED2
BDBEE952
BD987EFC
3CF7954E
3C882573
BD5CD2A7
BD0FC94D
BAC55B6E
BD65A0F5
3A29E4E0
BD97DF6F
3DAEDDE0
3EAC08B9
BCEA6E4F
BE8572C0
BD53C338
BD1C4E22
BC69F29D
3CD19612
BD2FF1DA
3D34ABCF
3BF4103D
BDAD3309
BE218B18
BC6238B5
3DDFC313
3E7916E3
BE88F716
BE3251E2
BC2C4FC1
BC321486
3D60D38C
BC50890D
BD428014
BCA1B1A7
BDB98942
BDFAD8AA
BDBDF284
BD6CE247
3D8C486C
BD14E204
BDA342EB
3D946D4F
BD218870
3D077094
3D616312
BD3739CA
BD7D6EFB
3AA08796
3D1D3BD5
3DCEC63C
3D2527A2
3CED8634
BE162C90
3C86C6D5
3DC9D4BE
3DC2BBE2
3DBBEE7A
BCF4B31F
3D82455B
BD308B42
BD4DE3F6
3D1EB815
3D888747
BCB6587D
BD23AFEA
BE0B1BF8
BDBB9BE6
3DC59F84
BD11FF53
BC389776
3D77929B
BD8DD549
3C3DF478
3D2E48B2
3D2F966F
BCB4B98B
BC5C82EE
3C9F3996
3C40D876
BE02B06C
BD45C1B4
3C9631FF
BB257008
BBA31E95
3D44B707
BD5B5896
BBEAB62B
BD667A37
3A85B820
3C5B4252
3D6168D5
3CD8553D
BD824D27
BD83A998
BCC134EF
BBFB37B9
BD1CCEF2
BCC8B60B
3D5CCF37
3D591278
BB8FDC54
BCD86E12
BCB630CA
BD38DD96
BB780BB0
BD630B92
BCE68F55
3D6D4744
BD362B39
3CA2B0FF
3D2A6C7E
BD701E40
3D1ABD40
BD10ED78
3D36E245
3D1FA36D
3D4574FF
B9084759
3CF8D983
BC15A266
BCAB5791
BC9E440E
3C10D768
BD459BC2
BD297028
3CCA6401
BCB7C4A3
BC188C3A
BD0CB64E
3B9BD596
BD09EC08
3CD06EFF
BA691083
3B63A69E
3CFFE9EA
BDEF44CD
BD9BD157
BE1E762E
BDF78467
BE135E28
BB67CAF6
3D2DE665
3C1D8A81
BCBD697D
BCB16845
3D3C8C4B
3CA2125C
3CDDDD48
3E016407
BC847085
BE2B04CF
BEC9C811
BED44DD6
BEA18911
BE192634
BDE49327
3B0EAA79
BD69A35B
3C085522
3D8A05AA
BA6E67F4
3C388BFD
3C802BBA
BC9B8B96
BE1B9536
BE67569F
BE1F4EF0
BE623199
BE16F29D
BD977910
BE09A3C9
BD889348
3D02A30B
BC7D948B
BC3F5F1E
3C59C3DD
3D1128A4
3C9D084F
BE670DB0
BD801361
BD496D36
BDA67C4A
BD905944
BD531DF7
3B28E3DD
3C1BDBCA
3D4DE716
BBEACB42
BD0840AA
BDEC6A2F
BD22E299
BCD167EE
BE12DC40
BDEF03B1
BE1C2DFC
BD8281A0
BCF97496
3B93E7ED
BD08295E
3D28C744
BD34ADD6
BD66BEC3
BC942E05
BC46CA97
BD166166
BE6B81AD
BE5BE894
BE221EB8
BDB1C107
BE2A2B7D
BCD8AD8A
BD6E8449
BB7AF7A5
3CCE8D24
3D4F5A82
BD49EB6B
BD349FD4
BCD96848
BDF2F8A8
BDDCF6FB
BC41AD8D
BD8CDD0F
BE48A951
BE41141A
BC723594
BC022493
BC11ECB0
BD476991
3D38CD9F
BC4F0721
BDA57EED
BE05CA6A
BD815BD3
BD97AB52
BE253B25
BE48C6A2
BE8AF333
BC3551DA
BD05AD8A
BD61D2D1
BCA6E149
3D6B7E7E
BC0A9F54
3C48ABF1
BE20000E
BC764AFA
3E5DD983
3DC61E33
3C43F9FC
BD9F7FD8
3E39D74B
3E8C1153
3E21DD3E
3E045203
3DD838C1
BD61C254
3C0BCD6A
3D455207
3DC1342D
3D08247A
BDBA658F
BD8772EC
BDE3C673
3D7C1230
3E6570C0
3DC5B83C
3DBF8555
BD8FD022
3D4565A0
3D17F70A
3D2F0BA1
3D5ECFBF
BD7D0910
3D47C918
BC7272D6
BDB99F33
BD7A0DA7
BD08836E
BD59D6BA
3D9F886B
3C4A049D
3C5A754E
BCB24BAD
BCE4C596
3CAAB1B2
BD6F7C18
3D68AA86
3C6FBBD1
3D1BF3BD
BD07C0E6
BD128436
BCB84DA7
BD3CA9A8
BB3FEA14
3C552962
BD0178CC
3D561B7E
3C817FB7
BD44484F
3D745484
BC991116
BD33AA52
BD83BF12
3CA066AD
3D892E78
3DA0E2C8
3DCBCC80
3DBDD7FE
BCF03D45
3CE28451
BC8CF074
3D739158
3D40677C
BCA7020B
BD5D2752
3C0933C0
3D17B03B
BCA5C956
BD8FBB32
BCF8E4BC
BD126DE0
3D3058B4
3D87BD7F
BDC84E87
BD912B14
BCCB357F
3D3BC55E
3D0016DB
3DCE3D68
BC3697DD
BC61B181
BC487779
BE3F3EAF
BD2D1607
BCF4F071
BD19B46F
BD163645
3D45D65D
BCCED507
BD8C8C22
3BD6AAD5
3B835403
BD501D20
BD4AB815
BB9ED91D
BE1105E8
BE338580
BEA826EC
BE36728D
3DA074CF
3D75CD77
BDA913D6
BD9BE9A2
3D473C87
3D59FAC3
3B0EC557
BD9BB73A
BD322127
BD291C0D
BDDBA10B
BE4B2AB9
BE82D1F5
BEA92036
BE3E35AB
BDA38B90
BD3FB68F
BCA46A66
3D134785
3CE20893
3CB04DA5
3D2A5265
BDBFB9A3
3E1DF9FF
B9ECDB95
BD8DF7A4
BDA4F1C1
BE9086AC
BE2BF8F2
BCF39D09
BD84AFBF
BC377E61
3C9F66FC
3D53A314
BD3BB76A
3D777FFD
3DAECD76
3DE552B8
BDFEC565
BDC4B2C8
BE463991
BEA57FF4
BE10C16E
BE08C88C
3C88EFE1
3D4E351B
3D6E8C0F
3D3F738C
BC6D8806
BD4258A4
BD092771
3D6E413B
BD3BD5E6
BE9B452C
BEAF3ACC
BEC5EA25
BE1D942D
BDC1A7BA
BD0F0A4A
3CF11D62
39E84891
BB587138
BC90C517
BD7350E9
BDF72A36
3DD4383A
BE8FA7CD
BF0AA06A
BE439D7E
BE871714
BCCD1AB1
3DC59A9B
3D38BC82
3C79A72E
3C455151
BD52CCFD
BC8432F5
BCD42380
3E19C524
3D812184
BE59B77B
BDD57AC1
BE05DE8B
BD2CEB98
3E460B0D
3D9E0C93
3E1DD4A4
3C23D787
3D291DFF
3AF8CBD2
3D95667A
3E8FA7C8
3E6F80F9
3E383B9F
3D2C0472
BD14A8EE
BEA6B45E
BD0B0300
3E0BB22A
3DF5AB63
BD44552A
3D2532C8
3D321CF9
3D24FAD9
BBFFDA11
3CB3E92F
BD050651
3C671EA2
BE8F9D98
BE766583
BE9C4BCF
3D169ED6
BDA7E484
BD383000
3CDD1B49
BD82902C
BD57B238
BBDDF948
BD1BD857
BC9C4529
BD22B8A9
BC12DDF1
3CE2F30C
39A2747D
BCB90F81
3C27B4FD
3C833D23
BC966562
3AED4DC1
3D4ED2D2
BB8AE5AB
3BD7A4F6
3B123456
BCD5C1FF
3D5C4E9A
3B903B0D
3C5E8633
3D815FE4
3BB0D05E
BD5CF415
BD3FBD9B
BD412CD7
BB7EA151
3D28EB88
BB89C37A
BD479195
3CFC5B20
3D5866B4
BC9052EB
BD38D231
BD2362ED
BBE4F4B5
3D6BE37E
BD90C26C
3D7D2E94
BC5D6AB7
BD6CF1B2
3C672D61
3D1BBF38
BD4AD1E3
BD58B42D
BCC33364
BD79EF8C
BD34CE55
3D5F7C35
BCAF0A1A
BD0AF26D
BCD63D3F
BC16D027
3D111BB5
3C3B2BA9
BC8BAEFE
3D78AA7D
3D4FDD94
BD538E68
3D13DA58
BC8AB7DE
3D15C5EF
BB440157
BCB0D905
3AEBECE3
3D6A7DCE
BCC92678
BA08095F
3CD508BB
BC81D08F
BC958D99
3CE72893
3D679B21
3D82010F
BD088625
BD16A5F2
BCF30A60
BBF8C25E
B9A3FE8F
BD030C7E
3D5EE30F
BD174A90
BCF3315F
BD332663
BD5FBDEB
BD162F1C
BD63B010
3CFDD798
BD26975F
BD05BBB2
BD3A0EC7
3C822FBE
3D169009
3D3CDE72
BD17D038
BC8FEFBD
3BBBB40F
BD26D1CD
3CC4AF17
BCA3282F
3C9930DB
B9C231A6
3D040554
3D478E2C
BD20EFA1
BD35665E
3D40A84B
3CB17FCB
3D8E3B71
BD4C0FF6
3C062752
3D3F17D9
3CB4F9BB
3D509190
BC671DC7
3C1B1D2E
3D7974ED
BCE385A5
BD316885
3C5C086E
3D06CB0E
BC3D5F78
3C9AB619
BBDF8237
3D1FE9A7
BB9CF77C
3CBE508C
BCA43FD8
3D167B95
BD21C7C1
3CD572AB
BA4A13B3
3C20777B
3C32E50A
3D5B0EAA
BBF69E56
3D01801D
BB7BA56A
3C02CE5D
BD254BD8
3D07A778
BD6E76FB
3CA1715F
3B257EE9
3D05B910
BD4BC0F3
3C8C5A4D
BCDCB69D
BD29B892
BCF47835
BC8AE0C5
3CB60F8C
BD598153
3D9C635F
BC751F45
BD40AD73
3D434B1C
3D52441A
3D49B5A8
3D64EAEA
3C965FF3
3D3F042D
BD003EB3
BD15C368
3D30CFE0
3CED7D84
BD292F74
3CE7C368
BCCE7B02
3CC9AD6F
3C0E712A
BC8C2D3B
3D000E0B
BD00FD17
3D71DCE2
BD3F1FEC
BC80AB59
BB26F13C
3C54C717
3C405F3E
BD6025EE
3D20F63F
3D4E6765
3C8F8145
3D4EE346
BB17D57A
3CAF7C3C
3CC96BBA
3D7F4426
BD318A09
BD71D98C
3D8B21DB
BD19F3F9
3D03EFD8
BC7C3737
BB96135D
BD2291DB
BD47F931
BC6F47C4
BD2FEAEB
BD64ED6E
3D38958B
3B15F923
3C598D56
BD5EE8A9
BD1E6810
BC925B4A
3C11D17A
BD5F4503
3C8AB9F2
BD7030FC
BD14DA15
3C951044
3CFD12D5
BD108DD8
BD6E416D
3D68F32D
BD72A92B
3D513B1C
3D27A2B6
3D308BC0
BC8DC77B
3CCF4C78
BCFCC38C
3D783982
3DEF466B
3D84F411
3DB6C29D
3D547FC0
3CCAFB2C
3DBEFC05
3DA6EF48
3D7EDDF7
3DBC1EA9
3D6B30B8
3C01CCE6
3D4FA98A
3DB66107
3CFB6638
3DD89F79
3DB7ACF9
3DCFFCDC
3B238E35
3DA33A89
3D6114F7
3D4C578F
3D9D2B2E
3D4B93A0
3D234037
3D8622B1
3D516183
3DB0F017
3DF57023
3DB06FD7
3DCB02A1
3D258202
3D3EAABD
3DADF93B
3D8E0EB0
3C6CAFC6
3B0EFE0D
3DAD4D6A
3DC025CF
3DCBDEE4
3CA90696
3C437228
3D8FD95A
3CCA75A9
3CEE2A31
3D2F03B5
3DC9036A
3E32E113
3DA79F1E
BD04A4BD
3D5175E9
3DA530BF
BCA7A80A
3D5667D0
3DD050F0
3CFED8ED
3D1AC867
3D7FF609
3D68429E
BC2CD224
3DDEA4D8
3E4406BA
3D92C752
3C92B5CE
3D944151
3D3B3DEE
3D8387D6
3D064F46
3D9D818B
3D9839C4
3D8B6888
3D54661C
3C8AFF42
3CD51A80
3DC82937
3C916ABC
BCEAC7AC
BAFCCE66
BBA35E09
3DDF45A9
3D9C6D56
3D0E0BD2
BACE3C43
3D10D798
3D04E4F0
3C955342
3DBED5B4
BCA82E35
BCF42432
3DBFC599
BD4167BB
BDD8341B
3E0C2595
3DCC2B3E
3E113B98
3D9BD251
3D9F45DB
3DDD631D
3D0E3C70
3CC2A017
3DE7246B
3CF9B3EE
3D9BC7C0
3B978D7F
BD261BF8
3D482AD8
3E0C48AB
3DDA2CC2
3E1A351A
3C9BA78B
3CF178F0
3DF29FD0
3D4489BC
3DD13023
3D035FEC
3C937D81
3DFEF7AB
3D1B73BB
3D0E3FA8
3E7F56F9
3E3D16A4
3DDD464D
3DEC4410
3DA9F361
3DC52FD8
3DBD2920
3AD10129
3CD33DD6
3C770CE5
3E265FA1
BCA30383
3D43B501
3BC28F73
3E9D9437
3E648985
3DE53207
3CF7A86C
3D85ED7F
3D2E6231
3DC2565B
3DCA23FE
3BDF7565
3DA78E68
3D47F3F7
BA861761
BD65ECEF
BD8C9CD4
3DE7AE37
3E02FD73
3D7F64DB
3D026DEA
3DC63AC8
3DAD51C7
3DA239F3
3C09B79C
3BE8FF27
3DD9506B
3DA36625
BC8A53EE
3D7BB3F9
BC582AB4
3E1725BE
3B69C4F5
3DD9A174
3D86875A
3DECE58A
3E1B1464
3D1FF211
3C6B55EC
3B59DD8D
3D67BA4E
3D9A4221
3C8A6255
BC0D21AC
3E4D64AF
3E34BAFA
3DD67E23
3DD85A3F
3D9AF747
3DBF84D2
3D6F6AD2
3DCBEDAD
3D71FA4C
3D173E42
3CDBBFFB
3D1D1CED
3E262211
3DB51C7E
3E2540BD
3DAFC887
3D756D8F
3DA6FF20
3BCF05E3
3D907AF4
3DE7334A
3D3DA694
3D7BF544
BC96475A
BBFBF368
BC543BA7
3AA61E59
BCFE66AA
BD4757FC
3C36204B
3D1BE1EA
3CF541F0
3D0F6209
3CB376FF
3B50C658
BC2DDFBF
3D2E841F
BCB57910
BB08A3C4
3CC87809
BD455B56
3BA44759
3D550FEE
3E20E10A
3DFA933C
3DC04DDC
3DDBAAB5
BC817759
BCE60EF3
3B610B4E
3D22CA87
3D6D6E59
BCC7E3FD
3DADF87C
BE05BBD3
3DB5877A
3E8EC570
3E270D59
3E89CE38
3E0835DC
3E84A04C
3E3758B4
3DB15C0B
3D331450
3D1609C3
BA0BB219
BBCA2334
3CFFAC94
BE338BB5
BD55B746
3D6853F8
3DFC8CA1
3E20C305
3E5CA41B
3E806295
3E9D5405
3D44E3BA
BD8ED193
BD485D9A
BD2633B1
BB84859F
3CBF6707
BD868579
BE48E99C
BDBE3DD8
BD3A326F
BE0A7F04
3DB65A51
BD6D6952
3DB76BAE
BD6BCAA3
3D35FDBE
BD484EFB
3C398C9E
3D95D2A6
BDA74F82
BE047444
BE0AB014
BE1129E0
BDD76D12
3E7D41E3
3E49774C
3CACCD79
3C9678AF
BD6BB838
BCE4187F
BD082D8E
3C95602E
BAE67C45
BCF5742F
BDC10C43
BD6B1338
BD11727A
3E651B01
3E7626BB
3E48D840
3D8ED7EB
BD00552C
BC83CB34
3D167C13
BC9B87FA
3D642120
3D18CAF5
BD9684AF
BD254890
BE2ED939
3D77BA0A
3E96D058
3E3BE9FA
BC4053CE
3CAE0960
BDC6E3FB
BCF25760
3D16340F
3D2E4E09
3D45622B
BD976F4C
BDDA100D
BDEA903E
BDDBED9D
BDBB422B
3DE609D3
BC6CEB8E
3D39E619
BABCCABC
BE405EB5
3D0D8021
3D098991
3D0AA08D
BCABC822
BC398EC9
BE5B4594
BD97BA8B
BE2D528D
BE47D540
3D6B4C33
BB5282FB
BE004999
BE26EC5F
BE092214
BC3A406F
3DC328AE
BB858BFA
BB2CE632
3D68704C
3D277F2A
3C491288
3DAA2B12
BDF41F33
BC84BCC7
BE14CA6D
BE51B2DF
BD4C40E7
BDB52201
BC1F733A
3DA851A9
BD609C1A
BA40D888
3DD3FEA9
3E109000
3CAE6586
3E6D0E47
3D8602E7
3DD0CDEF
3E1EFCC5
3DC582A4
3DD3F66C
BC103B3C
BCCD26E2
3B132403
3CCA8292
BC936C64
BC68371F
BC875F01
3E16E3D1
3DAE07D8
3D5434EB
3E244585
3E1E0077
3D4CC8CC
3DAB2169
3D14CE63
BD6BE655
BBCDFECB
3D4AEEAD
3C3EDA34
3D4626E8
BCD879B3
3D773D5F
BD5971A0
3B47946E
3D0CA4BA
BD1ABECF
3CB9AAB0
3D45B4C9
3D505923
3C8F3C2D
BD369B9E
BD48C2A8

