BA80802D
3CCDC28B
BD46BAA2
3B4471C2
3D63E999
3C9BA991
3D109038
BD08BC80
3C818B96
BD920D8C
BD8CED4F
BD638C41
3D3A9858
BB95A85A
3D749196
3D63BE53
3D026CBA
BC615EBF
BC930155
BD1820DF
3D00E165
BD2A55CE
3DB21259
3D97F048
BE032DA4
BDDC1012
BD1F4626
BD3F40CD
3CF67FE0
3CDCDA78
BD07B8AF
BE5079FF
BCA29790
BE1C3CF1
3D9BC4FD
3E1A62B8
BD296BBA
BCFC669F
BDBFBF1D
3D946C44
BD02F042
3CFE9425
3D85C0D7
BD1443C6
BD381375
BDF17F29
BE9D529A
BD745A07
BD1CC4BF
3D9EE50F
3BE3DA86
3E406942
3D437D11
BD8F07F3
BD8A1886
BB7A948E
3B0AE7DA
3BEB93DE
BCB21555
BE01982D
BE428717
BE27D9CE
3D952470
3E7C7161
3E764542
3E0C855F
BD6D459A
BE33D042
3D48F34B
BB756F45
BD0DFFC0
3C8C2E4D
BD5D1DC0
BCC57C50
BC075E6C
BD36A92D
3DF961DC
3C8EDDB6
BD63AC57
3DF084B7
3C3C08FA
BE15DE2A
BD134CF2
3DC4F8AC
3C869D8F
BD486F34
3D068C59
BDD17B36
BD74B133
BE38DB0A
BDB62A65
3D05528B
BDEA27CF
BE86360D
BE2F08A3
BE52BB24
BCBD814E
3E06C1B9
BD5A4AD8
3C3A53E2
BCF6CDA1
BE17F314
BE1FED25
BDCF4543
BCB6712E
BD8BC4AC
BDDD18B8
BE66B2C3
BE253B19
BDB5C935
3DD2BB74
3E6BC70F
3CD463D0
3CC4474B
3D63C32B
BD7CF2DF
BE6E57A1
BE09C430
BE140CA0
BDC6F8EF
BE92E23D
BE5DDB5A
BD8DF990
3D4D35E7
BDD8C546
3DAC6FA6
3D6B59B3
3D441FE7
BDD7DB3C
BDBA8959
BDC84AC5
BDBAE4A3
BE835B49
BDEA3461
3E3F1EE2
3E181B9A
3E50AEA5
3E346C48
3D7B734D
3D836358
3D244E18
BD4B4F9F
BD8644A8
BE026EAF
BDCE0A5D
BDD7683E
BE522D4E
BBD58654
3E7AAC5D
3EB001F8
3E8665A2
3E40E967
3DDD8D64
BCCC596D
BC4B842C
3D3C0A1B
3B9F421B
3CE23E34
BE1493F7
BE223C01
BE3BEDA5
3D64F9FA
3E5CBC40
3EF2177C
3E0F68FB
3DC23CD3
3D7EF873
3A23F73B
BCA2E338
BC0FCA52
BBB14223
3C188C95
BCC6326C
3D0B2FCD
3D999127
BD8EE8B4
3D488741
3D79AE62
BD001474
BB93F712
BC4D9E24
BBE79A49
3D150BF6
3D3632D0
BB0F8F40
3C8A5BE6
3BED9B74
3D0983D0
3D4046F0
3C846AF6
BD7593BA
3D27968E
BCFF3CD0
BD293C44
BD61D9CF
3D176C97
BA9C3AFB
BD14F57E
BBFCBC36
BC7C7C94
3C289306
3C77B2B7
39ECF5CF
BC4CC4CF
3D5CAA83
BC9EE572
BCB9CED3
BC5B113B
BCFA21DF
3C16D6CE
3CEE4E94
BD075FCA
3D1C2CAD
BAC00E5E
3C85BA17
3C970546
3DAEDC4A
3D8651C0
3CF0C5DB
BD2735E6
3D31F89E
BD3DBFFC
3D6F8D66
3BF8638D
3CCC017A
3D0A030F
BD2F4E2B
3DD01112
3E3029AE
3E720D98
3E57DE56
3DE2DE6A
BB7DD352
3DA10386
3C7808EB
BD8C030F
BCE03172
BCB22BD6
BB956EBD
BDAAACDB
3D90DAC6
3E0778AE
3DCE9106
3E0C368B
3DF1C103
3DA69DC2
3E40F175
3DA67F57
BDF502F2
BE3AE47B
BD480F85
BCD669FE
3CB7671A
3ACC3138
3D9C54AF
3E228691
3E720684
3E1E8D8E
3E7E9A62
3D18A237
3DB3B586
3C519CEF
BDE534D7
BE32303C
BCE9609A
BCD0654A
3C958EC6
BD0843C9
3DA019E9
3D810DD7
3DB1A4A5
3E6BF560
3E2B8372
BCF933BA
3D0989F3
BE067BA0
BD22C3F7
3C62D09F
BD7583EE
BCCF46DD
BD65CE1B
BBE35EDA
3E0B355D
3E5093DD
3ED7A826
3EB322A4
3EA906F1
BCD21FB6
BDBEB3BE
BE6319DC
BD9510BC
3DC7BF67
3D505AE0
3BC9692D
3D3B16EC
3B7D334A
BE6F41F5
BE52A3E0
3D9B84C7
3D140945
3D856EBC
3DB13555
BD8A5380
3DA37E79
BD26F031
3E502A6C
3E8D6705
3DD58D97
3D0FDD0C
BCC57D51
BE203F56
BE024FA8
BCD6D9C0
3CC11727
3D80A6BC
3E05125E
BB4B3C3F
BDA88F5D
3DF3AF63
3EC11C4A
3E9CA751
3DC79B3E
BD668445
3D8BDA02
3C808D7D
BC9811A6
BD6686F0
3C961562
3E7F266B
3DE56026
3E5E8414
3DA96081
3DFD4183
3E9896DF
3E0D75FB
3D63C717
3D0ED53C
3DEC75D6
3D468679
BD3BE1FE
BE1569A3
3DB2E319
3CC6C5FB
3DD8C040
3E173D46
3D39291A
3E879A0B
3E88C6D0
3D63CFEF
BC1EF4E9
3AA0BA07
3E1F852A
3DC21C17
3D50F52C
BB6B6BC5
3D9FE626
BD0F72A9
BD9184BF
3D852054
3E6F5C86
3E28F157
3CFD5DA5
3DC053C6
3AFE81F3
3CE0F294
BC7FE25B
B9AE0402
3C9FFBF5
BBE1CFB9
BC791414
3DA70046
3D0E082D
3E0AF6A0
BC8D6FBA
3C9CFA4D
3DC08BF0
3C6BF1FC
BCF083CD
3CAA670D
BD77400D
3CD932ED
BD074D03
BDD3AD75
BD7D1733
3814C260
3D9FBFCB
BCF3DDF2
BCE9B4CF
3C967930
3D02A888
BC55D3EA
BAAB5AF3
3BDFCB48
BD1F044A
BD45CD98
3D744A6E
3D2B5138
BCB1FAC7
BD07E582
BC92F781
3D63A494
BD2DB389
3CE6B813
BC8C9AB4
3D421862
3D15B68D
BD50E145
3B8EC01D
BC1A4A91
3BE2644E
3C19A9F5
3DB6679A
3D966F42
BD842CE7
3CB8B0D1
BDFAD655
BD25B3FB
BC77342C
BD0922C7
3CDD73DF
BD091E8A
BD633A58
BD84E123
3D4ED34A
B946032F
3DE7C9B6
3CA031D5
3D691A02
BCFA5005
BD3A4489
3B50A981
BCBEF151
3D11897B
3C4F76C6
BBF89D1E
3D3AA321
3D14ADDB
3CD692A2
3C79A57F
3E441244
3D206837
3DB68B01
3E1CC036
BE4B27C0
3D146544
BD759934
BC6A11D3
BD10285C
BD29FB1B
3B9B0CD1
3C5E11D1
BDFE9B46
BD134483
BD6BE641
BC8C0B46
BDF6873C
3C0F9080
BE135D1E
3D8BAFF8
BD000F09
BD86C9F4
BC399F05
3D21662D
BD999819
BE119CAA
BE872C78
BE85696C
BE1BDE93
BD88177C
BE0317A3
BE2EB42B
BDD377D9
BCD30387
BDE0B54A
BD2330D0
BCCD9009
3C86CC92
3D1E8EE5
BE758D84
BE42C6B7
BE5D8CFA
BDD9579D
BE22330E
BE50C42C
BDE8927A
BC8A621A
3BC3C2D2
3CA1F0A1
3DB0904F
3BE739F6
3D5D94C6
3CDFDEE1
BD91A0B4
BE20E202
BDF0D5C6
3DCD36C0
3D82713B
3A917F03
BD14301E
BDA4B11E
BE1B96AD
3D069074
3E30704A
3CF39710
3D3808ED
3D967DD9
3D254F0E
3E05E85C
3E34B825
3E7F8090
3E34BED3
3DD9885A
3D11E397
3D092401
3D83371B
3D5860C6
3DCBE423
3C4866D8
3D038703
3DA649B8
3E3098A6
3E5B6C27
3E4CC9EA
3E9B1974
3D8B12EF
3D2D2251
3DCFF4A1
3CB52F01
3CF708D2
3D076E9E
3BDE223F
BD1B8715
BCEB438A
3DB0913B
3DB39869
3E0AA884
3E0B289B
3D835663
3B0A2D97
3D81C796
3BAAD71B
3D9CAC62
BDF5EAC4
BDF0354A
3CC6A4D3
3D302D55
3D163496
BC399338
BC9469EE
3D83588B
BC8E1778
BCA41612
3E247DCF
3DE815D3
3DD61FBA
3D961A9C
3BE37B32
3DD7D14A
3DB4C749
BC2E4820
BD22F496
BCF1E21D
BD9244CA
BD808DD1
BD887848
BD8F5AAD
BD507B88
3E02619E
3DB189CA
BDA2300D
BD6C789F
BA26CE9E
3D7F8419
BD4DBBEF
BCC75ED8
BCE91A3B
3D612D12
BCE67C93
BD5D856A
BC0D1ABE
BC1A834E
3D2D1231
BC9EB8E0
3CD4636C
3D17C59C
BC5BE82B
BB265B15
3C60D34C
3D128177
3C750F54
3D479086
3D17EDF8
BD0050F0
3C0D3B37
BD5C8CE9
3C26A911
3BF103E5
BC5321A7
BD22C51C
3D4F8A75
3CA56BD6
3B929158
BC92FCC2
BD110C01
BD87FC9E
BD56AE0D
BD3D0999
3D2F2E12
3E22185C
3DF25ECF
3D362632
3CE6C7A4
BC5F9AEE
3CFD4417
BBABF371
BBF46DB6
3D762F30
3B9FEDF9
3D1A7974
3DC5146A
3E226B7E
3E6D9567
3E3A1DFE
3E6A5038
3E5F6D7B
3D786572
3D0ACCE6
BD5F7204
3B173068
BC33F7CF
BD39D697
BD1B8509
BCD576A1
3DEFD3B9
3D7B824D
3CD1F52F
3E1C9AD2
3DEFFD42
3E0DBE02
3DECFE70
BCE50CF3
BE0FDF5E
BDAC8F8C
3C1734E6
3D193A78
BB72D9DE
BCA98BA3
BCB743FA
3DBF5264
BC7A062B
3E44C5B8
3D15B747
BC6E08D3
3E10B6BC
BCB80193
BD50424C
BC351A87
BAC162AC
3CA1D504
BDAE350F
3D7EB1F5
3D64B84F
BD83A738
3E043F09
3ACF02F6
3DCA3AB5
BD450E4D
BD6BF8EA
BD8C76F3
BC719236
3C74A56C
3C9F8536
BCB96852
3CBE9FEA
BBBE6AA3
BCE1F62F
BD88698C
3D29BD5C
BCBF1886
BDDE0ED4
BE635D60
BE462370
BDAB1C9E
BDA0EFE2
BD13C179
BC0AD109
3D2F6263
3CC6E3E4
BE44987B
BE8C554E
BDB54B55
BE1D1DDC
3B9D894F
BE3E85B1
BDE728CE
BD79DE02
BE1E389B
3C97A07D
3E4031AD
3D847082
3D800EE2
BD943C68
BD914836
BE4CC310
3B79C6B7
BB1CA2DC
BB807DF6
BDFE697E
BDC05B5E
BDA63F35
3DE4D19D
3DE3397D
3EA15D3B
3DAC1008
3D33A947
3C4D37B2
3D56D7ED
3CAE81CF
3D04A293
BDD41EB1
BD349D1A
BCF7F682
3D891ADF
3E0C8856
3E36B278
3E2766D4
3DF36E2B
3D4C407C
3D8C7F94
3CC1AAF0
3CB05C81
3D0AB84A
3D12F0B4
BC52B732
BE198229
3D3F1D28
3DDE533B
3E177901
3E630A94
3E55662D
3D7374BF
BC599DAF
BD049CBE
3D68406D
3A8A4A80
3D55F5A4
3D813688
3D36EEAF
3DEC8771
3C88F02C
3E4F6C98
3E8D2B5C
3DD5891A
3D56A9A3
3DEF310F
B6CE716E
BCEFD6C9
BCE25874
BD8859D8
BD886007
3DCEA0F1
3D2FCA12
3DF08538
3E21A129
3E18C5CE
3C963B36
3D07306D
3D88DA6A
3D00C423
3C88C7CD
BCF8D402
BCA78841
3D2962E7
3CA563C5
BDB3F27E
BD7AA81A
BD85CB6C
3CDF2DFD
BD9F4204
BC39C673
BC7E52E3
3CD42536
3D5902ED
3D7842C5
3CD96384
3B910F36
3D1891BF
BD6F5C0C
3D020EB0
3D461714
BD31FAB7
BD824169
3D20BEA0
BBB79894
BD62D06D
BC34FC3B
BD560421
3C5BF51E
BD6C9995
3CC466D8
BCC84247
BCDA4834
3DA55FEF
BD4ACCE6
3D245A41
BDA249FA
BD647E38
BE00AAE7
BE2C27D9
BDE6A4C9
BD886989
BD46899B
BCBAC9E0
3C535EFB
BD97E190
BB3562BD
3DD23997
BD27D51A
BDA82AF4
3D18BA72
BE06D4FC
BC15E2CD
BCDE331E
BDE77F17
BD28DAE3
BD606930
BD282B5E
BD007A71
3E193CC7
3D8485DE
3D1FBEED
3E022021
3D3F944B
3E15687C
BE077DD8
BE99C686
BE9AAB69
BE19CD01
BD84BC36
3C8F0E43
3B803D12
BD671FF6
3DCDD89C
3DC33DBC
3D3DE7D9
3DDB1CA6
3CE7D81E
BDB2A619
BE6A01FD
BE280B4B
BE47D9BF
BCD9B2A7
3B5FDEDC
3C001115
3CAD2219
BDB70538
3D03879A
3E0BB5A7
BB2097D8
BDEB7D66
BCC19785
BE4BB30E
BE277A77
BDD3C289
BE242C64
BD8BEF21
3DBC34FD
3DCE66D2
3D51A64C
3D5E9D7B
3E51FA93
3EF58652
3EF0CD16
3EEB4980
3E95EC7E
BB7D234B
BCCC8B66
BE5B0C87
3C7C3327
3E0AAAC9
3E7C4961
3D98F4E2
3D612285
3DEF5EBE
3E432F67
3EA4BC42
3E98D926
3E1F0368
3DD3C76B
3DE24694
3DAD3C42
3DCEC113
3E227A94
3E2A1D21
3E8260D8
3D69EC08
3CF129C4
3D75AD40
3D9129D3
3EA71C21
3E238102
3D4F8E26
BC09D7B4
BD0BE22F
3DCE134E
3E877EAA
3E6924DF
3ECA9D38
3E81856F
3D472CE6
BCB3A9B4
3E0E4CAC
3D9E7D66
3AF2D9E6
BDCC3F3D
BD9E8568
3B99FE08
3E92CF1F
3EA5B530
3E0B2253
3E244BF7
3E814458
3E5F82D7
BC828FCD
3CB3A0E0
3DD1FA5C
3D554D12
BE56E9F1
BE9E1847
BDEEA790
BCB18DA2
3E468A5C
3DF51C4D
3E88AD60
3E9D5A28
3E976B95
3DE0337C
3D84FC29
3D12685E
BC9C8AEC
BDCB1FFE
BE307CE3
BE729569
3CA56A45
BC4162E7
3D147905
3D3A1FBB
3E44FFF7
3E5B9D40
3DF8B1FF
3A56A2DC
BD42B322
BC70738D
BD882C6C
BD7323B1
BD77EABC
BD80D7AB
BB79F8E7
BD3C335F
3D755C9F
3E4108FE
3E3EA653
3CEE8744
3C4DFE0D
BD0E982C
BD46DD7C
BBF81EA1
BCF39197
3D007980
3CE6408F
3C65FC91
3CD7E484
BCE27DF1
3C7BD28C
3C97E644
BB911A14
BABF33A2
3CC3027A
BD2049F8
BBD3814B
BBFAEDD9
BD21EA3A
3D57F9A9
BD210A51
3D045E55
3D256C32
BBA4752F
BC8CFF58
3D8D7C62
3D0113A5
3C00458A
BC61A01C
3D072077
3D1C2F57
BB437988
3D5A976D
BC8174D2
3D5F5245
3D427839
3D14873B
3C0C4AB7
3D161325
3CF2A3E1
3B0A75DA
3C8EF1B9
3D21A5C9
3C59ED31
3D7543EF
BCC14058
BD577F1C
BD16B1A1
3D16D79D
3CFF93D7
BDA484D1
BD925A3B
3AE1E583
BCFA95F2
BC96CADE
39154DD8
BD06BC12
BC9653E3
3D5D7F48
3D45EBC6
3C558F69
BC61AD90
BD542E6D
BC9EBB3E
3D81D5D4
BD93105C
3CD67F5A
3B72E6F7
BD34CCE9
3C0123B7
3BF6280E
BCE1E9B7
3C319413
3D67450E
BC932E5B
3D2D8746
BD22CF16
BBD207AD
3CB4A06C
3BFE33FD
3B8E2806
3C33F9D6
3C8F2854
BCFD199B
3D4C5F43
BCEBDC9C
BBEB8741
BBB42431
BC9B7310
3C85E3C1
3C999694
3C6A9789
BB4B7E85
3CF299F7
3CDB922E
BD28897E
3D1D1FB2
BCF6F03C
BD79E3E1
3A96349D
3B36C920
3C907E51
BCA24CF3
3BC41D2A
3C458D75
BD5D72E0
3D6AE6F1
3CF14F8F
BD6A1C7B
3D4937F4
BCB70FB2
BD1B6EF6
BCCEFC63
3D363920
BCA5CF0B
3BFF68A3
BD49F3D2
3D447403
3D36ED9D
3CE47F68
BCED5D24
BB8FC733
3C9AA01D
BD82E242
BBD9FA0C
BD831093
BB32661B
BD09FC2F
BD0E5215
BD135115
BCB61088
BC34AD7E
3D29C085
BCB00D1A
3B8728D5
BD109829
3B2593B3
BCF1FE79
BD142E5B
BD151B3C
BD1219F4
BC7A342E
BD4629EC
3B4E75AC
BCCAC95A
BCC22AAB
3B562AA5
BD361490
BDA48BED
BD0EE6A1
3D3C8104
3B6B7F13
BBE7A367
3C7C8C22
3CF3465F
3A934643
BD3AD302
3B88DD12
BD866D34
3CF2FCC3
3D1C192E
BD5DAD80
3C46C0B9
3D1F9670
3CDFD21B
BCCD1D27
3B5237FD
BD198FA9
BC536075
3D3A72CB
3B72A32A
3CC75269
3CB7E48F
BD640D7A
BCD4F61D
3CCBCC8E
BCBB51B5
3D0D9B59
BBE12B1E
BCDC1F89
BCCD0C12
3D2E844A
3BF132BE
3D59FCBE
BCD25569
B9248E95
3D24F6C8
BC04E92C
3D1A9ED5
3CABCC8C
BC113B87
BC7DFBFB
3D4B9DF1
BCA22D40
BCA27C62
3D4E65E6
3D0AE7A5
3D3663F0
BCE84FD9
BCB52D83
BC0E0BA9
BC333469
3B43BA6F
BD28285A
BD520553
BCDD27EB
BD8199BF
BCCBE138
3D052E0F
BD692F88
BC21D79C
BC4CF725
BD4F55C7
3D57435C
3C5334FD
3C960616
3D9F6849
3CCF19B2
BC363966
BBCCC6C3
3C79EE02
BC5DEB24
3D0CE6AF
3C106366
3D995387
3D3CEE46
BC879EDD
3C4663F3
BCC397B1
3DAD9F94
3C0D6D60
3C480FCC
3CF81B24
3ABC4A46
3DAAAC76
3DC82F6D
3DA7ACB8
3D308637
BCA000EC
BC906201
3D19BE2F
BCA36889
3D92D9CE
3DA85E43
3DA6FB10
3D8BA4EC
3CEC2367
3DB4108D
3DCD6EAE
3E17D1F9
BD13CBF4
3CEE3108
BD6A2AA5
BB54393D
3D3877EB
3D09C2E9
3CDF6F2D
3D6424FE
3D2EBE40
3DD2D99F
3E042B52
3E222E60
3DDCF878
BCF41241
3D7E1FCA
3D3F57B9
BC8CB58F
3B8F083C
BBEEDEFF
3CFB5F51
3DE209C3
3C0AE83F
BB847232
3DE65B2F
3D2980BE
3E8A30A6
3E4A985B
3C852CDE
BAA94737
3D0A316E
BB69BF89
3B6E0532
3D5FC55C
BCCA6330
3C6956EE
3DA49F04
3D093251
3D210AD7
3DF2BD1D
3E25FBC5
3E103E78
3DBDE697
3C9DA493
3E028855
3DFAFDEA
BD13D428
3D8A44A6
3C010302
3D93D834
3DAEE336
3BCFDC3E
3DBFFDEA
BD0E70B5
BE28ED4A
3CF8B622
BC481FB5
3D087EF2
3D91C841
BBE4F63D
BDA3BF20
BCF21665
3DA5B3A3
3CEAC75D
BDB88D76
BE205919
BE360303
BEAB5C9E
BD6739D0
BD369760
3A8F2DA6
BDBC1C44
BCD4058C
BD730E32
3CCA2C2F
3D81C880
BCD24AFC
BD1E299C
BD84792D
BE71F0FE
BE91CB77
BE91C058
BE285784
BE21526A
BDFAE03D
BCC66C36
BBD99821
3C210B16
3DBB2F5E
3D3FA09F
3D03E162
3C99281E
BDF3241D
BE2A76BA
BDDFC7D2
BE316FDB
3CA08D51
3B10DC5A
3CB3CB83
3D17AF76
3C3BB403
3D7A82DF
BCBAB245
3D12F587
3CCA580C
3D5D9DA9
BDA64EC0
38378CC4
3BAEBA9D
3AA70DC0
BDFE8814
3D62309D
3E03397E
3E3D4F5F
3E76A019
3E251F1C
3D8FC9DD
3CA9A05F
3DF0C2F9
3DA2CEB9
BCDD8427
BCF0C746
BD5A1856
BD82F532
BDEFAB14
3BBCC333
3E3EDF6E
3E9B1B32
3E4CB046
3D176886
3B7CB9AB
3D762D01
3C7D958C
BD671000
3CDE37B9
3CE9D2E3
BD6C8EE4
BCBC7B03
3D00CECB
BD4A9EB1
3BE4939E
3DDAF1EC
3E12826C
3D5416DC
3D4C8649
3D90BB4B
3C9A8870
3C0A64ED
3D664972
BD690104
BDB2BADD
BD18EFC6
BCE6D02A
BBF150BF
BCE0FF05
BC809DDC
BD19C752
BCBC60B1
3D8CED9A
BC4B107F
BBCB4E98
BD4124D9
BD4778AA
BC70ED4E
BCE7A4B4
3BA927F9
3C892AF7
3D0E96A6
3C4661E4
BCB4FF4B
BD1C724C
BD5C3F4C
BD6FDA15
BC9BBBFA
3C939FA5
BCF5FE3B
BD81696C
BCD9F876
3E126EB7
3D0F3806
BCF6AD8F
BDDF46E0
BE019FB2
BE4C9239
BDD0B817
BD94A3E2
3D63606B
BD51D22C
3C9BEACB
BDB624BA
BE0ABF71
BC4DC35E
BC5F321B
BD0BC6A1
BDF409AE
3D8151AA
BD397AE6
BE4B721F
BE364461
BD3CE519
3CDD1BC8
BD4B73F0
BD68BE6C
3BB79A7C
BD56AEB4
3C6AFFC7
BE188EBF
BD13CB63
BD80F185
BD75BEE3
BD2D118B
BD72EE4D
3DB3516F
BDAB07B0
3C23904B
3D377BD9
BD388DC8
3D090508
BE026CAE
BE52C957
3D293985
BD84D147
BE2E8BE7
BCA6E218
3E7EADD8
3E942A4E
3E9091C9
3D54C79D
BD8097EE
3C8D3460
BCE1F663
BDD69D81
BE079B9D
BEA94590
BE87BC4C
BE91CD86
BE9661F7
3D8A6617
3E13C581
3EA9FBCC
3E8D9023
3E1AB878
3E008D6F
3D7AAD2C
BA422F59
BDB4C435
BECD0B9F
BE6661C9
BEEAC419
BEB9AAD5
BE3450CD
BE5810D0
3E021481
3EA37669
3E39BD04
3DDC1A19
3DCD9A22
3CA74DEB
3CB524C6
BC8C2F2D
BDB817D0
BE52E960
BE4FAAAB
BDD22DF8
BD88618C
3ACAD02D
3CC998B0
3E60F786
BAE04DD4
BE16D5E7
3DAB71F2
3D6EC9F1
3D3901E5
3E1A5DCF
3D4D6289
BDB23A95
3DD8BCB5
3E7E5196
3E7BE3E2
3E40EBA8
3C497C06
BDC51A62
BD4912E4
BEBEE3FE
3D9685E6
BAA63839
3D5270F1
3E6C5BFD
3E079E6D
3E80A41F
3EA47B68
3EAA5DD3
3E15B475
BD25E5C4
BCE9217F
BE3601B3
BE6C7BF4
BE90F6FF
3DA7D0DE
BC4B3E0E
3C23CE1C
3E50D0DE
3D1D4FDA
3E15F6FC
3E284EDC
3D9A0CAC
BEA8CEB4
BE407C16
BDF5BA1C
BE9891BA
BE84021F
3D0460C7
3CC15B4E
BD5A5EEE
3D08AD53
3D025948
3CDD2653
3DA323E1
3A258D87
BE6DA363
BDE91D00
BED44457
BE425798
BD8B511F
BAE53CD9
3D82F4E7
3C52B2FB
3D5D7236
3D7A60B5
BD765FEC
BD2FACAC
BDC4F167
BE56DC8E
BE859D9D
BE576E4A
BE4DF104
BE962687
BE5262B4
BD087D76
3D3E01FD
3CE41E4C
3D0BA976
3D1CB827
3C6EB877
BAA959DB
BD81C04E
BD92586B
3BE6391B
BB36A61E
BDA52F33
BD9F6AE5
BD8978C6
3C41EF04
3D4DB543
3D6F6879
3C133C04

