3D3A98D2
BCBE2E0F
BCBAD35C
3CF3CAB6
BD5DEE4F
3CE9CB08
3CBA40D2
BDD3F1B3
3B6FEE91
BD4DCC45
3CDCAC92
BD26A41D
BD4E165E
BCB95D75
3C22D5CC
BD22AC07
BC35327B
BA4A1F4B
3BC2CBB7
3D3E62E4
3D4CAB2F
3CB6EBDA
BD208BB4
3DDC098C
BD88B1EB
3C8AE213
BD20844E
BCD32477
3D733E8A
BC29B128
3BDF073F
BDA0FC2D
BD7BBF13
3C80CDFF
BD71208E
3D5CE9FC
BDAAA440
BD13EFB7
BCC7B117
3E1D27F1
3C54B164
BDB3AFBC
BCC1B330
BB91609A
BD8B2A3F
BD2E1B14
3C81547A
BB047FB0
BDE62C8C
3DB88045
3E8F8D26
3E9C9C05
3E1BDF2B
3DAC6BED
3E187B61
3D1C87F2
BC8F3212
BB8D28AE
BCAB668B
BD8382C7
BB978902
3CE9D6A0
3D34A81C
3E10050C
3E2EA845
3E66E2D9
3E84B6A8
3DD73F94
3DCB6DFE
BC8659B8
BCB6C55C
3CA88B88
BD4D9851
BDB49551
BD05BC65
3DC179D2
3C0C4A19
3D3E647E
3DB76946
3E84F202
3E110165
3E77D793
3DC2F516
BDB260B9
3CFDABB5
BD3F1038
BCB4C357
BDC927C5
BD02EDAD
3E1683D9
3D678E4B
3DC3505B
BD9661EC
3A53560D
3D84BEE5
3DDB26FD
3E0A6408
3CFB2409
3C6A33A4
BD3D61AE
BD77D67D
BE087C89
3B332E5C
BD9782DA
3E3DD21D
3C9884B9
BDA06BEB
BD96F8F5
BD5DE7EC
BD9D5CBB
3CC4BFCD
BD8A2AAE
BCC78DF8
BD42B285
BD42A2F7
BAE2145C
BD369320
BDED4072
3DFD2156
BE0E63E5
BDBF83B9
BD200F3D
BDAC6D51
BD92EEE2
BD2BFA02
3B24959E
3D522B9B
3D7759A6
BD1582B5
BCAEE0DF
3C3C32FB
3DA93A7E
3E529734
3D299F7D
BE797247
BDEE9649
BDA441BF
BDC9ED86
BE4C71E3
BDB27731
3D3BDD34
BC85C489
BC45D82A
3DBFB25D
3DC26FD3
3E01339D
3D01B08A
BE66E17C
BE3FB3C5
BE5798E8
BE3567B9
BE074FBE
BBA600EE
BCD243F7
3D54E301
3CD7C0D2
3CD35578
3D37FDF8
3DB22074
3D0FF725
3D84B7A8
BDC14AA7
BE51A030
BE07E67F
BDBC17BC
BDCC4798
BDDEF633
BD4652C2
3D2CCB24
BD32C441
BD10544D
BD58BF51
3C161E38
3CE46F75
BD1BA2A7
3C1B0E94
BD527236
3B5A7FAD
BD1E92B8
3D0F874C
3D52F08F
BD6C9ED6
3D4C950C
BCB6A4EE
BCCE1A97
3CC98FB8
BD116F5F
BD129625
BC4089BA
3CF25E76
3C96FD02
3CAC605B
BCD6175F
BCAB2863
3D5CECC9
3CA8D8C7
3A61E2AF
BD08B6AF
BD39D66D
3D6483D6
BD0B9921
BD17756E
3D1CE44C
BBF375E8
BD4465AD
3C9FD690
3C575A26
BD08B4FD
3C4E71C3
BC81DA59
BD0699B4
3CBD18E6
BD4171F3
3CB75263
3BB8467E
BCBEE8B3
BCD43F75
3D15FB0A
BD0C7A94
3D3E3011
3D26CA0A
3B6919E3
BB63D61B
3D0EF7DA
3B8DD9E2
BD2478BC
3C311863
BD9B40EF
BD1D2FAA
BD0E74CF
BCE12574
BC9E6F6F
3BDF109D
3CB39A5D
BDB3B49D
BD37A500
3CFD464E
BC1ED2B7
BB588F8C
3C7D5B56
BC9A59E5
BDF384A9
BDCA6619
BDCB7F75
BDB246A3
BD8DC015
BC8754BF
BDC990FC
3CC0A0D1
BD0551A1
BDF89E08
BD613380
3D227197
BC5C138E
BD4BF6EA
3A587118
3CB86DD8
3D4EE340
BCB0560A
BE25CE44
BCAE5CD4
BD103237
BD32ED51
BCD96C32
BD1C2577
BD8D1ABA
BD2CFFBF
BC0FC39C
BD1CAFE6
BDE4DBED
3C853C13
BC63AFC4
BE21A09F
3D1C628E
BE0C7F4D
BE4D0EA3
BD98FAE2
3C5C397F
BD452B6B
3B7787BE
3D5FF1F1
3D139362
BDB2ED02
BD831CA3
3C9B4AE3
BE254AC9
BE1AA47B
3BCDD60C
BE044453
BE02C9FD
BE0112F9
BC0650EF
BC8EC4F2
BD77A05C
3D5C8D1F
3D397124
BDCF3594
BDA9C40A
BE29140F
BD405614
BE1169C9
BE5B587C
BE5D4224
BE25DDA4
3C29E95E
BC848064
BBA5FAA2
3D018F80
BCD18A2B
BCB51035
3C489B0A
BCB57157
BE1D555B
BE3816BE
BE88D882
BE631EC5
BE4710F0
3DA64C2B
3D8C27C9
3DB4E495
BC8F07A2
BBF3CB31
3D022C1E
3CEA33BD
3D66D46F
BD146D3B
BD569819
3D775885
BDE803FF
3E36311E
3E407A9B
3CD11FCD
3BB2BA51
3DEFB0A6
3D4CBD5B
3D264FE4
BD135F23
3D281B30
3C23B669
BDF77E8E
BE6B8A0C
3E11A68F
3E884719
3DDA210C
BC8C06BE
3C536C0C
3DA4E0B0
BB9C0692
BCC9C023
BCC41CF9
BD08FDA0
3CAFDC94
3DBC727B
3DEAA20A
3CACB49E
3D9D5DC9
3DC4AAF0
3D889E24
3D510CA1
BDC02898
BD018547
BC6E9F15
BC8BF437
3C2FBB61
BCD35BE4
3D3C3423
BD8D37A5
3D1856EE
3CFEE22B
BCD2270B
BB150A67
3D62B7A4
3E3B7D88
BD4ADD29
BDFD411A
BB9A71BD
BD77DD1E
3D0AE30A
3D03FC2E
BD2D2625
3AF74B34
BDB8F537
BE094F96
BE1D67DD
BDE26B54
BDC237B1
BDEAE853
BDE721E6
3CE2D25C
3D08BA27
3BEA1A75
3C84B02D
3C5E32AC
B7481000
3C9763DA
BD2E78A0
BCA82114
BC9EAD81
3A872FB2
3D2F7149
3D4A833B
BD44D4EA
3D1FC7F8
BCAB6E2B
BC0A6B3C
BC9B18F2
3CA6EC6C
BC0B170A
3CBBEDD9
3D033AB0
3A21CE02
BD39153F
BD98D2AA
BD0D1B2F
BDAF8EC5
BD57236B
BDF8C68B
BCFA9F56
BD957A58
3D72876F
BC17A408
BC58A8CA
BB4BE0B1
BD635A22
BDF123A8
BC932752
3D4FFA4A
3D089D4E
BD92CA9C
3D2E67AC
BE15691B
3CF2EAD6
BC69C7B3
BD3DE3A0
3CF5447B
3D3ACFC2
BDC18EA9
BD65B6D4
BDBCACA0
BCAE60A7
BD4CE17A
B7DFED58
3DB5F7E6
3DDAE594
BCA6813A
3D00FABA
BD60C2AC
BC597FF4
BD69556B
BD484072
BD27AC7C
BD28211D
BB97D7AD
3E00156F
3B9CE092
3E01ACAD
3D545922
3D7E19FF
3DDA1709
3D0078E0
BD2A57C1
3C30FF6F
BD142A52
BD005D56
BDA0A3A0
3DC0520D
3D2DE6ED
BDA1F57D
BCE2D9CD
3C7107F3
BCB5CB1D
3CFF1525
3E066A0B
3E15C959
3DA8F221
3D2477F6
BCC0641F
3C053CA8
3D7B58FE
3E3D5860
3DA3745F
3D13FCB8
BC5AAAE0
BEBB9185
BE8B0B3C
3DAD6C71
3E0C7536
3E363AA5
3E0D94DE
BC999019
3D66D81E
BC158D06
3DAD7402
3DF91AFD
3E03D16F
3DF218F2
BE57D5F6
BEF20AAA
BE60039E
3D1570C0
3E0A334F
3E0F1BDF
3E155370
BA7DEBD5
BADE9BDF
BD41B1FC
3E0B9E7D
3E61F436
3E04677E
3DB59961
BE6B8E5E
BE83E8BD
BD921C25
3DCAE057
3E028ECF
3E426B9D
3D9B3FA5
B9683A10
3C61A921
BD850795
3DB1C881
3E23F46C
3E08BCA5
3D84F6CF
3ABBCAF6
BE220727
BDD597A6
BDDAE981
3DA2E900
3C23B725
BAA5560B
3D3AB235
3D6C4841
3C16A282
3CF9AD46
3D9C6F82
3CD37146
B919DCE9
BD9A54BE
BE6EA1EB
BD8D8BF1
BD9B8F6B
BDE676B4
BC2D8B2B
BC8F015A
3CC975D2
BD52183D
3C98B5F2
3CF996FA
3DC9E35C
3DC97916
3D919C8B
3CEA9755
3C97EC34
3C94C7D0
BB115267
BDD68DFB
3CF7643B
3CD83B18
BCE2E6CE
BD2717E8
BD7C2E92
3CCE1622
BD89E964
BD1D497D
BE05850F
BE0D5628
BDE13FA0
BE01BC75
BE199D6E
BD5179AD
BD611713
BC1E5AB2
3D178ACD
BD7916D5
BD6E4F2F
3C906A63
BD1029F1
BC8AFCF6
3C6278F4
BD80CB78
BBDD2156
BD8246BA
BCF95271
BD5829E7
BD03873F
BC148726
BC86FE7C
3C701444
BC38E01C
BD4C6885
BC1A3557
BC38C9F9
BCB3C1EA
3CAEA343
BD15453D
BD1CC4A3
3D7DC12B
3C8E9B51
3D15DDCF
BD0BCCF4
3CE77E82
BC9DE0CF
3D72F201
BD2A2F5F
BC9596A7
BD1D13FD
3B38E160
3D643AA6
BCD0CF0A
BC7E66DE
3D338764
BC33397C
BD2BA006
3D400D0A
BC8E3248
BD3DE1C5
BCB584BD
BD1B2C69
BCFEF4F5
BCB05926
BD207547
BE1E1DFD
3B6F9759
BD26A4B6
3D6448AF
BD24BC1F
BCDD8EFD
BD51DD71
3D39169F
3C1D349D
3C2FF204
3D1F1723
BD61AF59
BDD49005
BDE44222
3C149544
3CDF04F4
3D25E787
3DFDE3EE
3D4B9A9C
BC334304
BDA70CB3
BB1311D3
3D32900D
3CC07B90
BD4FCF08
BDCA8FB5
3B339381
3CA7CE78
BA7D9969
3CA6321F
3DD9AB43
3E427654
3DF2D53E
3E006BF9
3D0266F1
BCE1F5DF
BC5734FA
3C977D00
3D2A6719
BDC2553E
3CFA0CCE
BC107760
BD1C446E
3D989F62
3D7CAFD3
3C86A3B2
3DA521C5
3D38E8CB
BBC364F9
BD529CC3
BD6E00D3
3D0E6451
BD094993
BE05D88A
BE140995
BDCA3D93
BE0E7E09
3D846174
BD84BEB2
BC8D9CC0
3DAAF8E5
3D284951
3D194573
BD8628A5
BD4D1365
BBC0A8F7
BDAAC7E1
3C1D0401
BE0DA5DC
BBC70894
BD04EA2C
BE87E0E7
BDB656CF
BDAA1B52
3C7DA533
3E11E443
3D039318
3CD1A43D
3C8088F3
BCE5D7D7
3DB6E70E
3D909841
BD81DCA9
BE6628BB
BEA02604
BE91A346
BE14DAD0
BCBEBE4D
3D763D69
BB9FC1BE
3DD74175
3D2BA27B
3D2DC413
BC16DFE7
3DA87076
3D7A147C
3DFD9C23
3E0A1D28
BE5A7A9D
BE02264E
BDA06B8F
BC964096
3D7C96A3
BA0C3947
BCBACAC6
BC1A9474
BB7D90C5
3CCFE374
3DB38328
3DD0C12A
BD14DF1C
3DDA1BCC
3D40880A
BE3B8D52
BE387A8B
BD96C962
BD8E0B0B
BDDCC41B
3CB773E1
BCD56616
BC9FAA8B
BBCD105C
3D6907FD
3E2E0692
3E0ECBC1
3DCE1E11
3E46388D
3DFEE69D
3D36CD51
BDD26D2C
BDE595E3
BD49FC5C
3C48CDFC
3CC7AD4F
BB3EA801
BCB45155
BC3CF67E
BC3DCAC2
BD644BC6
BC41A944
3D80B491
3C5BABD9
3DBDE84B
BC8112CE
BDD3F50C
BD5369D9
BCE25E0A
3CD191F1
BD496EFC
3D5579A8
3CF488B5
BD8A734F
BDC31076
BE02F3F1
BD83A5FD
BD48190B
BD9C81A1
BDCE1BE2
3BA2478F
BD4952E9
BD0AB6E0
3D779311
3B540F2C
3D623E9D
BC6EED73
3D504DFC
BD608D78
3D1FB248
BD2CBB18
BB512049
BC3B3EEA
BD950BA5
BC971F0C
3BFC58A7
3D56317F
3D008D5C
3D1BE41B
3C37B4C1
BC8BC279
BDBB7A1A
BD6A04E6
3B86BA65
BD7D509E
BDA9F5F5
BDAFECEE
BD56C7E0
BDE02522
BD1829BB
BD85BC48
3D4CBF2C
3CBB6F84
BCE93DE3
3D019EF2
3BF55CEE
BD895FA1
BD0B5E65
3D51D955
3D615E8A
3CDF59DF
3D82C418
3D4377F9
3D7D538B
BE0A981F
BD930DF0
3D74A221
BCCC14C9
3C5E672D
3D398561
BD4C6022
BD5985E8
BC2E0568
3D7D2B15
BC1F761A
BDDF2F14
BDB336E3
3D93A4C6
3C795B93
3C8288A5
BB5364A3
3D43C7FD
3BAAA8A8
3DA39669
3C9D9370
BDD65796
BD598B51
BD39D0C1
BC926D04
BDFA1F04
BE4518CE
BDC8DB71
BD31FC71
BD353967
BD72325F
BD1E515A
3D61403F
BBC0F4CC
3D98FDAB
BDEB8049
BE56A9A1
BDFC04C8
BE8D02F4
BE998B4E
BDC86AAF
3DD9B832
3AF62D18
BC933827
3D2119FD
3D5DA9AE
3DC42FA3
3D56A5FE
3DCA95BD
BD8B23E4
BE70BE1D
BEB458C5
BEE82913
BE435124
BE28BDCE
BDA25D60
BD8DC9DC
BC863655
BADC4416
BD322993
BD738B1E
BDCC1051
BDA8968A
BE1D5681
BE3CFEA3
BDB34929
BDBD467D
BC3B0E99
3D4C9286
BCC5779D
BD9D6E11
3D3C602C
BD5A7282
3D2C3DC6
BBE2B465
BDACC947
BDDAA3D1
BDB32A67
BD54A352
3DBD11A2
3D5438DC
BE134C6B
BD9CE943
BE1CBF5E
BC8E1E37
BD43413B
3D19BB80
BB9C9E60
BDBF9176
BE2D2201
BE532B35
BDE8525C
3DB3899C
3DCE56C0
3D905978
3E2F2F6B
BDC09642
BDB37C8F
BD5EFA38
BC87D086
3CB81CE6
BD2EB4FF
BDF8AAFE
BE5D9A15
BEB4A084
BBC906C2
3DF628D4
3E7CB175
3E6CD3DE
BD737FB3
3CFCB628
3A106F63
3D1A13B5
3BB225AC
BCDD8645
BCD25F32
BC269E94
BDC228CA
BE2846CA
BD7F51CE
3EB55AA9
3EA79982
3E1FFF2D
3D9F9208
BD59F72A
BD09BE48
3C915A64
BC9E04FD
BD509DBA
BB562F65
BCF7326E
BDD9ADE8
BDA7DC9C
BDC9BCE1
BD8F99EB
3C1D7025
BC39DF0E
BD2DC28D
BC9427B1
3CC0B188
BC472988
3D4273E6
BD7552FE
3C25B7C0
3D1CC735
BD4E7415
BD3DEED1
BD628078
3C8713FF
BD223AA8
3D2E8F47
BD75D26A
BD1524AF
BBB7982C
3CB94E8E
BCE903F6
3C97521C
3BF05EDF
BD6AB5CC
3D495E4E
BCF44CCD
BC83B2DE
3D11FA17
3C04582F
BCB51DF8
3BFE3A36
3A2B2E96
BB8A9EDF
BCD4C146
3CC7C114
3C7F571E
BC405AED
BD5034AC
BD40B228
3B9A2C9B
BD8C7994
BC3A3E19
BD7B31CC
BB4EB539
3CD3B3EB
BD01483A
3C9ABDE2
3D0D0B82
3C73E437
BD26FCBF
3C4A8F53
3D08EC5D
BC26537E
BCF527DD
3D2A5310
BBF733BA
BD0FA878
3C53DBDF
BD1877A4
3C8F776B
BCE3599D
BD7009FC
BCCFC2D0
BD16875C
3B8B3B1D
BD2DA63C
3C81C1C6
3C273BDD
3D245D0C
BD171AD3
BC3AE323
3D2B278E
BC00A534
BD21B4F1
3CCC06A2
3BD784DA
3C9B7CF7
3CA78E7B
BC4CA216
BCBEBCAF
BC9A18BC
3D764135
3C398050
3C7277D2
3CE71EF6
3B3104F2
3D8CB452
3D6033B6
BD49BD42
BD012B7D
3C8E3D0D
3D6EA085
3D765D26
3C99F8D5
3CC300A5
3C678F70
3D49FEA0
BD37E815
BD01F45F
3D3B15D4
BD4AB819
BD52586F
3DA05897
3C227BC7
BCB25DB6
BC7C6203
3D1E949D
BCFB0F98
3D371ABD
BD43843D
BD5A853F
BC1D49DC
3C3A2BEC
3CD0B135
3D3AF80E
3D401967
BCDCB4DA
B9EA7A70
3C1ADDC1
3D39211D
3D331BD7
BC57AC54
BD25AC55
3C358869
BD40BFAC
3D552F0F
BD3BD474
BCC2D9C8
3C6B0364
BC40084D
3C354548
3D4233A6
BA9445A8
BCFDAA0C
BCE30032
BD114B0B
BAAD2ED6
3C1CCB95
3D1A9637
BCF9FB2D
3C869BC2
BC9875A9
BCE6FC98
BD31EC9B
3C69FB70
BD833FF2
3CA49B0D
3D077975
BC981AED
3D3F17CB
BC48D039
3CC2698D
BD0F29C1
BD26F44F
BD1E3203
BD2D83C5
BD585BA2
3D307CA9
BD87F355
BC89873B
BD7A6218
BC5C1E98
BC416453
BD16D17E
3D40CA74
3B99880E
BD07B1C7
3CDD04C7
3A5DF1E3
BB588DCD
BD84B8EF
3D780693
BCF40DB7
BD6FEC7C
BD065C3C
BD084FC3
3B419703
BC99B286
BBE954DA
3D4DE442
3B007411
BC2E4D8D
BB9C65FA
BD0A3864
3CF8F446
3D6AA773
3CC94563
BCF597CE
3CA91AF0
3C2B5775
BD384B9D
3C650BEC
3D1B7CED
BCF855DB
BC5662A8
3D231F79
3D118F72
3CAE5AF7
3A92E7F5
3D3C9D56
BD3D8A14
3D5BB528
BBC0A257
3D1EE2FE
3D58B587
BCABFBCF
BCACBB4A
3C325EE7
BC8D34DE
BD76777F
BD7FE7F6
BC5D79F2
BD47E873
3D62ABFB
3CD9979B
3D3B4B55
BD56AB11
BD08F58A
BD3C5469
BB9DE945
BD65F5EF
BD26045A
BD36EB54
BB47AB0D
3B86772A
BA7B3AD5
BD5A88B2
BC3B82BB
BD7A3A6B
BD7F0C6C
BD4EE275
BB5376C8
3D6B9E25
3D088091
BC8632F6
BCD54AA1
BC2393DE
3B852547
B96E3698
3CF95F93
3D210FB8
3D6BB07E
3D39A953
BD79D40C
3D54150A
3CF248B6
BCBE6626
BD604CFB
3D640E64
3C849F9D
3D175BCE
BD6E5AF9
BC899F73
BD2A51E7
3CCE64B9
3D44828E
3C6ED1B2
BCBA3C0D
3B9AB0BD
3C88B4EB
BD68EFB6
3D8EF20A
B8836DFD
BDEBA377
BD8AAD64
BA127133
3D4669DA
3D80F4C7
3D423B4E
BCF5B383
BCFA7DFE
BD4F4186
3C691A1C
BC0B47FC
3B923E48
3C8FA766
BCE81A4D
BD8DEFD8
BE03A1F3
3D2F3B18
3D7BE07D
3E250058
3DBA2975
3DB090EF
BC72527E
3D290EB3
3D4BD053
3CF83B42
BD970138
3C5B19D2
BDC13D06
BD83CF97
BDDDC78C
3D0D3963
BA8E0410
3D348146
3DE04817
3C8E4E5E
3C343DF6
BD847586
3C98356F
3D2828FF
3BCB96F3
BD7DDFCD
BE4534B4
BDCBAB62
BDC93BFF
BB6313CA
3D9F9DFB
3E0AB81A
3E186E68
3E272B16
3D9497B0
BC0625A8
3D4539D7
BD73F921
BD057F10
BD18CE63
BE53C9F6
BE0C42EF
BC18F2FA
BD08D1AC
BC00AA53
3DB6339A
3DE64054
3DD40E28
BD4BDD79
BDBD2AEA
3D448BBF
3CA49058
3CA6FC1B
BCFCE44D
BD7A228E
BE10F63D
BD8B0DCD
BCC54797
3C784B9E
BDAA4B62
B900A51F
BDABD342
3A913DFD
3939018A
BD212D08
BD6E3BBD
3D65107A
3C86D346
BD0A778B
3B7A4FEC
BDCF18A3
BD380385
3C0FFC6A
BCA72F7B
BD05B49D
3C16D7B8
3D20579C
3D139CE6
3C661799
3D5FB5D5
3DAD741E
BD5C61CB
BDA76C6D
3D8E5E38
3DF5D8AD
3D430D60
3E0BA783
BCE69F5C
BD6DA44B
3D5C0877
3D008C60
BCE89697
BCDB2D6A
3BC12CC3
3CABBE09
3CE2EBC6
BDBA7355
3CC39437
3D80E39D
3D327D71
3D656FD7
BD9C4BB6
BE00F30E
BD8BC2F4
BDE5FBE4
3C81C02D
BD281F52
BD740229
BC9913E0
3C5F003C
3BB12366
3D4C5D22
3D55DACE
3D6B305A
BCE99685
BD315598
BC4F93EA
BD78E349
3C67E1B7
BD130004
BD83FAD2
3D58EB7B
BD1BE3EF
BD3F352D
BD77BCF2
BB2D789D
BD358E30
BDC462B6
BDA733EA
3B01A3C8
3AAC1906
BD8FEA71
BCAA446A
3CF70C78
BD6DC4D3
3D4694A3
3D22F0B4
BCE30A4C
3D37F321
BAC1C391
BD007CD8
BC9CCEEF
BD08C438
BD4613EE
3CCF2DEA
3D375232
BCCC217C
3D110EB4
BC13B600
3CDD9B51
3D5CD109
BDB97F85
3CA0CD96
BD443C3D
BCB72252
BE2C9609
BD116C74
BD387443
BDCFAB05
BD070B5C
BD59000B
3B849D88
BCD65890
3C30C6E7
3C9F1E13
BC853D5B
BD208B6F
BDA8D25F
BD8D63D9
3D3D6D18
3B7121FC
3CDFFAC0
BDEB3859
BD37729A
BCEFEB4F
BD549F62
BB292B81
3BA0CBE1
BBADC0F6
BDE20AE8
BDBAE8C6
BE351549
BE0D8A7A
BE4C083C
BE0029C2
BD0123B5
BDD0D855
3D63D725
BDB3DD0D
BD9C0014
3D39239B
BD6F056B
BD8B889B
BD4CE9E0
3DB3254C
3D441CBE
BA3772E3
3AB81C47
3E330002
3CE9A8C2
3E84838B
3DB2E6F8
3DF09F3B
BD604617
3CB2BBE5
3D3AD9D9
BDC0CF5E
3D2C530B
3DE386B9
3D094EAA
3E41459E
BCA85EFF
3E03BBDD
3CA2BF35
3E283A20
3EA887ED
3E211E45
BC95E7A8
BCDED720
BD10B341
BD211F45
3E83B41E
3E0CAEEE
3DF29CA7
3E80BFC7
BD6803FB
3DBD1CFB
3EA66EF2
3E05F02F
3E4AB151
3E81F9C9
BC876CC9
BD452504
3C66142C
BD01D04D
3E8544B3
3E54037A
3E348BD4
3E2FC5AA
BD7A8EFC
3BF2FF5F
3E90EB94
3DE5E6B1
3E15A4E1
3E9FA321
BD37E76B
BD1F5F6C
3D0C913E
3D7C7448
3E6D16DB
3E5BEEB2
3EAC53E9
3DE112F7
BAD1BBC3
3E4552E7
BD7938C2
3D8BF939
3E31EA31
3E734450
3C8E22CB
3D34CEE6
BBDB623A
BB67EBCA
3E705950
3E457CDE
3EA0C9F8
3E94F67A
3D129A53
3D05787C
BB7A2EE8
BD33E7B3
3CDC6DA3
BD205BAF
BDAFE7E4
3B4D0DA2
3D09C887
3DBA73E3
3D61EFA0
3E2C7329
BACE4B62
3E96A9C9
BE3F717F
BE4885B9
BE7E1F74
BEC7713C
3C2A193A
BE28CEB8
BD845E3F
3D4A8C36
BD30F3DA
BD524ACA
3DFE9D82
3DCA60BE
3B010A22
BDC3715B
BE88EC40
BEBC2BF6
BEDE8D3F
BEA2296A
BD4B90F2
BE083247
3D40971B
BD5B087A
BBEC08CC
3C0DEBED
3CE63804
BD60A9C2
BDCE65A1
BE1EB358
BE1DC493
BE8E67EE
BE7933FD
BE1BD0C3
BD314D18
3D0548E0
BC3DF526
3C931263
3CE4920E
3D251EAC
BC8F2FC2
BD7F1989
BD39A238
BCA311AF
BCAD40D3
BC9B2DD7
BC68BD07
BD7FA55D
BB7B615E
BB72D3AD
3CC4050E
BA182E00

