3BD55064
3BFF02FE
3BB01B09
3D39DC0A
BD3778C0
3D277EBB
BA8660E8
3D7322A0
3CCAA97C
BD1714C8
3D0B35DA
BAC5D95B
3CB512A7
3CF0A1C1
3C80C40B
3C4043BA
BD115E01
BB91CAB9
BD6E7AD0
BD4F31A7
BC4E58BD
BCE22A3E
BCAF9D10
BCB3D6F4
BC01D876
3D4CE7BB
BD49F0FE
3CCAB181
BC78B789
3D2EBF26
3CC53F38
3DC19EA3
3D2D1A6E
3DA4253E
3D0559E1
3DA87842
3D018FC4
3E3FC633
BC367E3B
3D9E1DE0
BE044DF4
BD1FDE19
3D97517A
3D239B0C
3D46B4D2
3EC5A797
3EEB1C7E
3EC3B153
3E390964
BD5EA536
3C9B7556
3D376382
BE1ECBD3
3D9916E6
3D3F5930
BD8BF9AF
3D254A0B
3DD7F50D
3DC27CCD
3EBC902D
3EC985AF
3EB3A3F7
3E48AD8B
BE6D43A3
BD862E24
BDBC1314
BD8EB3C0
BD257597
BB328EAE
BDD05788
3D893D93
3CD16229
3DB7E674
3D9BD0B3
3E7E7114
3E34B5C2
3B3E95AB
BD8937A3
BE2BC03C
BE76541E
BE31CCF7
3CAB00F2
BE0659CE
BD8BE5F2
BA8FDD80
3D70CEFA
BC64FF04
BE39EF2A
BE5C06BE
BD3E9D25
BD7BDF0E
BE36AEAF
BE1DBC35
3D2AF1E6
3D52BF3A
3DECC208
3D99641D
3D29E30C
3D94C7C5
BD31FBEB
BE30175E
BE9AD149
BE70A7CC
BE874257
BEC109F8
BE7B7934
BE312D2F
3CD61049
3E0DAEDE
BC2E6B12
BDC95913
BDC12F1E
3CDC942B
BC84E40B
BCAD481F
BE5E1FBC
BE01A20D
BE4F24AE
BE53458A
BE74F733
BE7903DB
3D4DF05B
BDF5B1FC
3DB48495
3DE9396A
BA480518
3CE42F53
BD0BEEBE
BBD1A77F
BDAFB408
BBBAF091
BD46AB82
BDC6F06C
BE6AAEE7
BEC16DD4
BE819A8D
BDA6C62D
BCD9D4E7
BCE5E461
BD6AEE03
3D8374A1
BD1BA2A6
BD09AA2E
BD9EE22A
BDF087CA
BE640D72
3D72E474
BE00B6C3
3E03FBA9
3DF3A525
BD001B88
BDF1884C
BD9B6549
BCCC2FAF
BD237A62
3D0C2CCA
BC3FDB8D
BDCBA9A0
BDDEFAB4
BE01FA3C
3DA3D39B
3DED5726
BE0A8064
BE232B32
3CB86CCE
BCA7D52C
BCB86549
3D8808D6
BCBDD499
3C370ECE
BC0B38C4
BCBFA0B9
BD4F6A2C
BDB69BAE
BCB38765
3BA9E26A
BDCE26C9
BDF7F94C
3B839BEB
38851995
3B20CC4A
3C916CBF
3D6E29C8
3CCA500C
BD345794
3AB32749
BBFFAFB1
3D390EE7
BC9D548A
3D15BAB9
3DB54DBD
BD53EE4C
3CB763BE
3D8666EA
3D826FDF
BD103994
3B97517F
BBD392D1
3CAC1238
BD4685BC
3D024F93
3C20B20E
BD01BC31
3D45B45C
3CB91F05
BC8089CF
BD5851FF
BBB46912
3C9F70CB
3D52377F
3C430050
3D6C57DC
BD0686F4
BB8B188B
BC9AEF48
BCC690B2
3D36DA36
BA5EF299
BD005812
3AD768FB
3CE7E230
3D192003
3D64307B
3D72E59B
3D4FD924
BD07C158
3CB56A46
3D6F2E64
BCD836EF
3C83941E
3B424AB5
3D7AD247
BD49315C
3C4D3125
3B857E80
3B1B04D8
BD47711C
3C8A20BE
BD11CBB8
BD6440C8
BCB15512
3DE2671F
3D9F88CC
3E4DDE7F
3E85807A
3E0EE2BB
3CF9D852
BD78D70A
3BB67CAB
BD8A61D9
3C8ACC99
3C35C15E
3C038917
3C2B2B10
3CB495C4
3BABF9F7
3E201775
3DC27F25
3E549B1B
3E836ACF
3C3FF6E4
BDBC8DC1
BE62217F
BCA8A2BE
BCD5AA59
BB92BB6E
3CAA914D
3D49B746
BD108048
3DB93971
3E03AEB8
3E1F3837
BCCC2BA9
BC4195DF
3E165201
BD502EF6
BDC4EDF3
BE2624F9
BD0BD0D7
3D1BC06D
BCDF66B6
3E0238A3
3D164C60
3E0B5FB1
3DD0EC43
3EA7581A
3D85E5E5
BDBA7CBD
3E48F280
3DFA989E
BDECC949
BD019F5B
BC30A436
3AC085F7
3D4AEB79
3DCD42B4
3E029BC8
3CEAD7B0
3E2B87F8
3EB424BF
BEAACBA7
BE45910E
3DB0AE9C
3E1ADCCD
3BEDE3E2
BE11879C
BD7CFDE7
3D37E1EA
BC7EFD1C
3C08B5EC
3C4DFF01
3D45DF78
3DE83147
3D450016
BDF1EF95
BE245C2B
BC2F89CE
3E95B56B
BCD393B2
BD5BBD91
BDB600CE
BC1F0D98
BC8739A9
BA5320E2
3A3A4E10
3D09CA11
BD442F56
BE1DB8EB
BE643885
BE06D6A0
BDB55CFB
3D5D31AD
3D683C26
BC71E521
BB4E7DC6
3C8AB6FA
3C2A4E44
BC8939C9
3B91D73F
BC70C331
BD2E45CD
BE9B8C68
BE6CFD1B
BE43AD73
BE524690
BDEADAEF
BD92C103
BDF97BF6
3CF01EA1
3D0BB2A3
BC4EDECD
BD6F9C45
BC01A939
BE059FAD
BD428C0F
BE740DA1
BE8C8CD1
BE98DBF5
BE96684A
BE37F235
BD897326
BDA7AB08
BD8DBDFB
3C40FA6B
3D603087
BC42EE7C
3DB648EA
3D9C578C
BDA01552
BDF7207E
BD8FC3DC
BE152F4A
BE0FE690
BE58C28A
BDF0C941
BE09059D
BBB4F3BC
BD06C1C9
BD245C40
3D1E15EC
3AB40E85
3D45AFF5
3C06C52D
3D3ADECD
3D235735
3D0DF090
3D837DAF
3C94FF96
3DD38916
3C5B281A
BD173857
BD1EE846
3C82360E
3BB10928
3D4459D5
BD737064
BBDA6237
BB28DA85
BCE661F3
BD78B432
3C454F61
BD1B3290
3BD038D2
3C9032FC
BD6A1FEB
3B56F6B0
3BAD8508
BD055D7C
3C149514
BCD268B4
3C745785
BD2C9870
BD566A98
BCB1C29E
BD0ED156
3CB2B112
3D50089D
3A40DA9F
3D61213E
BC2446EC
3CAEBB22
3B1EF773
3D9791AB
3C5FD6A4
BDAADBA9
BE2BC48F
BDA37329
BD762ECA
BDF3F85A
BD978872
BDB13FA8
BC3BCE7A
BD174A45
BB832BEF
BD3ED4F2
BBEE75CA
BD902A8F
BD1C73C3
BC45B376
BD4A57CB
3DBEFD77
3CC5EFBA
3E00C2D6
3DDE8016
3D4DBC68
BD7E91F8
B9F5B601
BA957154
BCAF7650
3CEB36E3
3BB4F0CC
3D60CCB6
3DD6D936
3E362139
3E1C9DD3
3E76B219
3EBB9180
3D5F62F4
3DB88FBD
3D49EF14
BDE8C2E1
BC99ECA7
BD466B45
3DA4E2F7
3D7DA001
3D3845DA
3E278066
3E45BFDA
3D73E053
3E8B2A4B
3EAC3DA4
3E7DEAC0
3E37FE35
3DC652FE
BDC4716F
3CB9D581
3D026FD0
3D2EE0CB
3E1311B8
3CE1ACF7
3D3017A4
3DC9DBC7
BE5FD6AB
3DD4C561
3D15120C
3E42EC63
3DB1A5F9
BD735A73
BD88BF49
BD803E4E
3CC7DB3F
3D83D00B
BCC9DBBF
3D2EC2CD
3C92CE54
BE9DAD4B
BEC26798
BDAA0AB3
3C6B4465
3E8EF787
3DDD5C8B
3DB76F2D
BD84045F
BD855C20
3D48292B
BD92F884
BC95CF0E
BCE985FE
BD94974D
BE52DF73
BE0F3BAA
3E2BB455
3DB1DEBE
3D53DA47
3DF54557
3C79BFB5
BD86C657
BD3DA4AF
BD3C2676
BD8AE3B9
BD900626
BDBCCA17
BE680DA2
BE5AD6D3
3DC72954
3CACA307
BD3B2F74
3D1C4D9A
3C8DB2D0
BE135BA4
3B7C276D
3B71BFB4
3D4A4DA4
BC9D1C6E
BDB7182C
BD87E7C2
BDF7AFE2
3D79FF91
BB9DADE8
BCB3BCFD
BE366129
BE00B8C0
BDD4EFF2
BE15A203
3CA3EC87
3D68156E
BD776022
3D33BB9E
BCDFCEAA
3DF733B5
BC81950C
BDAD3C74
BDC070B3
BE272778
3D8544C6
BE015787
BDE7E545
BDEF11BC
BD85FF16
BC3655FA
BCDEA4C7
3D3F9A25
3D80E011
3D8BE341
3DEFBE02
BD03D35E
BDA0D612
3CC46B20
3D408B15
3CF19EB5
BCC05640
BD09971E
3CE24DD8
BD258BF0
3C844C6A
3D042B62
BCC1D62F
3D059E11
3AEFEEF4
3DD4703B
3CCB5417
3CDD26A4
BCAFFE06
BCA8356A
3CC608FC
BB81B412
3B6816CB
BD00E9C0
3D31B131
BCF9FD6F
BB330210
3A09EF98
BD3AC28B
3C1ED98A
3D69D24B
BCA5C8B5
3D2A7C7F
BD33EF19
3C4EE1E6
BD3AC83C
BCF947B7
BCCD61BA
3D7C83EB
BC2ED1A5
BC00F301
BD13AEDF
BD5169EC
3D093356
3D17205B
BD30E5A9
3D461E52
3D656C71
3D5BC8D1
BD141C31
BC98F9E1
3A9DF7F7
BC9CD2C8
BC2A569C
BD570317
BB991266
BD3B589D
BDA1B551
BD810E2D
BD3CF825
BDB79585
BD82D885
3D727500
BD07CCE9
BB40E7AE
BC32D4E4
3C08A131
BD7B2706
3DF11235
3E175BC1
3DDF845E
3E28620D
3DDE8FE9
BCD6E7A4
3D8280E7
BD508E3A
BE03DAA6
BD87F869
BD283C6E
BD32BA3B
3CC68735
3CFAE5E5
3D19BF06
3E83A030
3EC400E5
3D725297
3DD58904
3BCB698B
3D0AB9F8
3AF88502
BE41CF5D
BD28FC2E
BD8E4A6F
BD748E24
BC3B87D7
3D933FAB
3E3E4586
3DB76A42
3E03847B
3C60561A
3E3F893C
3D553197
3DE20761
3C374526
BD455C54
BD8B18E9
BD202213
BC19CEB6
3D221BC6
3CD4666C
3DD41244
3D8CD309
BBE24810
3D188AF5
3CE8D1E5
BE70EEE6
BDBD6EA1
3DE66A79
3C9E04EC
BDBCE71C
BD3EFC41
3CC1C3DE
3C23712B
3BFE5576
BD002E68
BE0E74E8
BE8F164D
BDC5FBA1
BEF2121E
BE908757
BD7E5787
3DDE114E
3D911DA1
BDD3CD84
3CB1DD9A
3CD1F393
3B4B6AA4
3D65EF89
BDD31DE8
BE129DB1
BE3CFAE8
BE5BD810
BE53870A
BDA2E735
3D664782
3DE3C372
3C9262D1
BBC2A1A1
BD9A9B16
BD7EB22D
BCDD4183
3D665974
BD0EC59A
BDF83A8C
BE8177AC
BE9D18CF
BDF51802
3E3C056F
3B8FAEB8
39EE880A
BC4EDF48
BC7D6865
BD0EE072
3BBFBF55
3D148EC5
BDA6C175
BAF7ECE7
BE5F94C5
BE9757F5
BE73A694
BDF3D53F
BDD0F671
BD76F6FD
BDCA60A2
BD527FE4
BE0583A8
BCC73FE4
3D597EAA
3B0024B6
3D08B38F
BDD0606C
BE35517E
BE3A073A
BE8927F6
BE91F000
BDCC5819
BDF1CA2E
BE01D186
BE36400B
BE1AD24C
BD848158
3D398BA4
3D44001A
3DB8EDFB
3DB1590B
3D09137C
BEA3847A
BE554FC7
BDD58D46
3D35405C
BDF52836
BE2E97C2
BDD477A6
BD900C9B
3D205258
3D481716
3C80C196
3BCB5486
3D05ECD0
3D9ABAC7
3D05F5A9
3D0704BD
3DCC1358
3C8C66DF
3C069B65
3D841C47
3D42DC33
BCA5FB75
3D0BE1B4
BD4E81F8
BD4A4381
3CA05F71
3D136EE0
3CC2C6A1
BD28E63D
3CDEE75A
3D54BA86
3D64C7EA
3B318927
BD45EF42
BD094EAA
BD128E08
3D074140
BD520BB0
BB43FA3B
3C246C02
BD59F22A
BDB6A195
BC8A4C12
BD999DAD
BD8689C2
3CFDFF21
BCB9C75D
BDA1DD80
BC98E60C
BD474A00
BC63BC3A
3C9BD224
3BB67E82
3D8D691F
3D885CD9
3DC451EB
3C92843E
3C5C7CFE
3DF5E0D0
BD23A9EA
BD8ACE33
BD831E1C
BE168A77
BD846B86
BDB33536
3C6A1D5C
3CFECAE3
BC4C17CB
BD635C77
3B2F1155
3D61101E
3E272F93
3E5DC716
BDC2756B
3E0596FB
3E21A7CC
3DF5321F
3B81DCD4
BC2BA24E
BD41D99E
3D82A1EA
BC28D43E
3D6A0928
BDAFB909
3DB575F9
3DAA8C02
3E0577F1
3DD3630F
BB51C59C
3DEA383A
3CB235DA
3DAA72CB
3C4D6F2C
3D15A216
3D22AFD7
3DFF3517
BCFDE1A8
3C904714
3E0FBBDF
BD6EB999
BE4F73EE
BDF80932
BD8A52E2
3E3646DF
3E0D8483
3D4B6F30
BE1A235E
BCB8B821
3CA6070B
3C09EA6C
3CEC8F89
3CFA5B89
3CFB73C2
BDA2D0DB
BE8ACBC3
BEC03E92
BD6597EC
BCF4089B
3E03E288
3D3D8B1A
3C162D7F
3C4242AC
3B5F09D1
BB273E78
BD902B66
3D1EC4D4
3EE9F136
3E26F890
BE68F879
BE536816
3D4171DE
3E466EFB
3DA66D0D
3C74DC9A
BD881712
BBAEF857
3CDF930E
BD50FFD8
BC8BB2FC
3BB28A7E
3E8C8F43
3DF20F65
3D7549A0
BDDDD9C8
3E54D445
3E6BCE51
3D647E46
BD9599D6
3D805F17
BD10049C
BCDD82DA
3D39EC39
3D451CB2
3D89A960
3D60BD6E
BD9E1C30
BD37869D
BEA7BD37
BD0A2B21
3E7BC9C1
3E6FBED6
BD33B408
BCF85F0C
3C8195FD
BA3CE412
BD71B004
BD767022
3C8CD5CB
3DE6B3E0
BDB85FBC
BE9434B9
BE24C954
BE09112E
BD7B9906
BC94983A
BDA00E6A
BDA6FF15
BC0C029F
BD510321
BAC4016A
3DE55685
3DC3FA4D
3C7CA1B7
BEA1D4BB
BE4F4CB1
BED81918
BED7AA9A
BEC95CFD
BE261267
BE190AFF
3B72D961
3D644E27
BD697B59
3CD4ABAD
3D32CB86
3D75B681
BD9A1CAE
BE1F3651
BDEE0EAA
BE2D2666
BE5D7B49
BE1AB91D
BD1A43FB
BC5C6D4A
3D4CF8D1
BD362040
BCF75CB7
BD365181
BD554826
3C22EF4F
BBF82EEF
3D093705
BB1EF3B9
3D8DB963
3CE06B60
BD43A7F7
3A16E443
38B28080
3C179CD5
BC40151D
BC39BDE9
3C7C6C5C
BD44D8E0
BCE342A3
BBF0BB1D
3CFA6477
3CC476DD
3D3EBE34
3CB5D09A
3C68C3AE
BD478A64
3D399568
3D36C2C0
BD754772
3CEE14B8
3D0D6787
BB3683A8
3D0ECCC3
BCF259BE
3D5594BE
3CE72C7F
BD2F5AD1
3CC69EBF
3D5CB579
3CFE5885
3D24015F
3C2312F6
3D72177C
BBEB34C3
BC273E0D
BC93CD3B
3CA135DC
3D164CB1
3CAB8D6E
B76E837E
3D1D916E
3D452943
3CEACB6B
3C37055B
3CFE0678
3D3E3137
BBAB0CA8
3D3AC9F5
3D1F1FA9
BC0FB929
3DF5F4D2
BCBD1BE6
3CF7B8E2
3D75C80C
3C3DF68F
3B2AE9A7
3D81C071
3BE21D1C
3D413336
3D6456EF
3D01641A
BD5BB5BC
BD409E60
3D1C3AAE
3CF52F56
3D0B4CA8
3C504154
BD86D3B2
BAFD7BAF
BD7336C3
BC996653
BCDF9331
3BE09BDA
BD10B3AC
BD2DD142
BD507D51
3D2512C4
3B3D9630
3D0514BF
3CDB63A7
BD73770D
BD81E293
BD4A113E
BD6E55F5
BB885EE0
3C86E4D8
BCC1F132
BD7B777B
BC38A938
BD7B302C
BC880A1A
BD78031D
3D506881
3D67091E
BD56A98E
3D365A0B
3B7DC4F7
BDAA3766
BD538C15
BBFFD24C
3D65D7B4
3C71EC99
BD84F5D8
3BF88C1F
BCAE18EC
3CCD8EAC
3D5938DA
3D813F7D
BC95B8E4
BC8707D6
BD589E01
BD440C0D
3C935B32
BD0A51D0
3D82C425
3D36D634
3C98E0CD
3CD2CB43
BCFB40A3
BD6A0EEE
3D494E3E
BC52148D
3C8D3CC0
BCCE8361
BD6CD608
3D39FD20
BD54B27F
BD0E9ABE
3CEC7AC2
3CB01C21
3B1AC9E1
B85C1BBB
3CD26AF0
BD244611
3C3B74E5
3D059B96
3C26A57B
BD4A6FC9
BD0FF8D5
3CE87B6E
3CFCE9DE
BB4E95D6
BD26D5D8
BD026630
3D0959F8
BD26A982
3D6D9013
3B056C4C
BD2D66D1
BCCE0A7E
3D490B43
BCC04772
BC9FB575
3D2E4BF5
BC54DF22
BD2BD50E
BC847780
BCCEBCFC
BD1D541E
3C511BEA
BC4E91C6
BC9F626B
BD0CA33D
BD7C0895
3D5E47EA
3C355CD9
3D36E9BC
BB64BEBF
BBC1444D
3CEF3304
BD6B0995
3CF11E7C
BCC94321
3A642BBD
BB169C27
3BEE3149
BD16EEE6
BC8FD19C
BD88C39D
3B6062DC
3CA00F07
BD81B91F
BD80C97C
BCE53C98
BCCD5A83
BD12290C
3C9558CF
3D34E052
3D034FD4
BD08C9F8
3C927879
BD033323
3D092D71
3D62F138
BD21ADB2
BCCC7854
BD27B09B
3C558985
3D4A93A1
BCED7D26
BD67A80A
3D9124A6
BC8907CF
3D94A990
BB57B465
3D33281E
3C5B059D
3CEC8D93
BC14F14F
3D87E0F1
BCF37A1F
3D1730A1
3DAAE2A9
BCFE4FDF
BC9528D7
3C5222AC
3D546B26
3D575509
BB3CA0A3
3D5FA01F
3BB67B8B
BC6B5417
3CF4F8A8
BBBF34A7
3C939F3E
BCD617C2
3D9D6D46
3D6CEE45
3C8D798F
3D2057FE
3D7D8FE2
BD5603CD
3C75E096
3CA67937
BC89B1F5
3DB3E33B
BBB5D7ED
3B48EDB6
3D1A57A2
3D6F8E49
3D9462B8
3D96893E
3D13664B
BCE803AA
BC4AC20F
3DEDF319
3DFCDB57
3E975E4F
3E88B9B3
3E3B613C
3E279A73
3E4EA6EF
3D8B823F
3CCAB370
3D7919A2
3C0C2925
3C943EDA
3D6E9097
3D906FCB
3D23C32C
3E80B263
3E74941E
3E22534C
3D60705B
3E3A2F97
3DD91A97
3C069D48
3C803A92
BD3F17C3
3D81309C
BC57F0FF
BC239A96
BCCE364F
3D84A28B
BB2CBEE8
3E027063
BD5AB85F
3BD2FF27
BC25909C
BBC079C5
BC8C7BF2
BDA7952E
3D1C35B1
3D185F96
3D3D0332
3DDEDB14
3C66EF41
BCA122F0
3D1B050E
3C713EFB
BE11AF6B
3DA34BB6
BBACAB15
BCD3F093
BDC06A9D
BAA8CDC8
BD2D1C70
3CAEF1D9
3D9FDB19
3DC723F1
3D9D40FB
BD6FCAA1
BDCE18AB
3B9C0B4F
BB213C84
3C2EABCA
3D9126D4
3D85DAAF
3B173D64
3DD9197A
3DA27E41
3DA21994
3BE8F99E
BCA53305
BD3F8FCC
3D05E9CC
BD482F6B
3C654875
BD2F2E83
3D8D9E09
3D8558F8
BC431460
3D241FF2
3A2CF218
3BA9B79C
BC86751D
3D02537B
3DA06B6B
BCAA34EE
3D87CB7D
3CCA791C
3D21EB63
3D2BE951
3D03B6B0
3DEADDD2
3D64F141
BDEA1762
BD7395C3
3D8E13E9
3D2E2DBA
3D25B110
BB9B3165
3D607137
3DDA51C3
3CC9E238
BC98E121
BE4CF022
3BF68E37
3D9B47AD
3E00A9F6
3D1DC825
BDC66FAD
3CC7CDBD
3BB52CC8
3D7DA7F4
3CD8D6CA
BCB06873
BCE752B3
BDBBA9A7
BE07BE50
BC255F4B
398E69E9
3E3140FB
3E27230B
3D88D76D
3D730B26
3C3FCEA4
BBA2A952
3C9DEF55
3D2C1CA3
BB5550A8
BD20BDBB
BD23BFF1
BD4954FF
3CFBD872
BBA03D23
3E0462E6
3E313CE0
BC02A915
BD25FB95
3D1109C4
3CA73575
3CDDED91
3D29BB66
3D9A1EA2
BC8BF5D5
3D7CABF5
3D29B7BC
BC4639DB
3D1228AC
BD2332A7
3D5CF5B5
3D414D39
3C935CA9
BD74B18A
3D605F16
3D917152
BD33D2C8
3D28A161
3CCB0E02
BC140F9D
3D5D1BB3
BCAF6DB0
3CD9E799
BD6E9780
3C71E37C
BCAAD12B
3CA5D2BA
BD209841
3C92C4B7
3C96E26E
3D66602F
3CB45C36
3B092710
BBEDF77D
BC642C0F
BD7310A1
3C36D1CD
BDA86337
BDBB36DA
3C3B574F
BD3C7A4B
3CFF9FF1
BD3E9051
3D2C6BE7
3D67BC9B
3C1AE264
3D1E45B2
BC114682
BD6AD9DC
BDB447CE
BE5FADC5
BE96DEA0
BE8F410F
BE4702BB
3C8C663D
BDB52B33
3C823BBF
3D4D1611
BB6404CB
BDE3B398
BD6EB549
BD896336
3D3366DC
3CB94224
BDD14CC5
BEA64850
BE0FEEE7
BE1E87CB
3BF4CCF7
3DBC2AD4
BC2E089E
3B71EE22
3BBCB8D0
BC378EFB
BCEB27E7
BE7F5F7C
BE3B5C8C
BE902124
BDC7219C
BE49B5A7
BD2F6A76
3DC819A4
3D04C711
3D1D0895
3D69EB63
BC99015B
3DE74369
BAB3E146
BE08A222
BED24592
BE55259E
BE72C5C1
BE06CFC0
3E44E0B2
3EC8E358
3E197F4A
3DC38EDA
BDAC0AC8
BC05C04C
BC0ECF06
3DB7C1A3
3D922363
3CE99BB2
BE0DEBF5
BE4937FF
BDF2401E
BC6B2DC4
3ED55564
3E5D6AAC
3D3F3144
3CE4CCEE
3DB3F5B3
3CC4AC8B
3D3268EA
3CBE56C6
BD04EA9C
3C4CE9DD
3D5E1A19
3E28A6DE
BD9A0A20
BDE039DA
BD822D61
3DE18D7E
3E129505
3DFC8B1F
3CF66EE8
BCAD7FD7
3CEE0807
BD51615F
3A9E947D
3DAC2440
3E36AFB3
3E91E010
3E09BEED
3D23F0C1
3CF88AC2
BD9B7DC1
3DED56CD
3DB82529
BDA5C907
BC9BA639
3D67E212
3CE5CABA
BD00EAA5
3D8AF7F1
3DD6F0AC
3DABAC67
3D8BC95A
3E6B92FB
3E4E3601
3E6519C5
BE203C5A
BD9DA223
BDC19B99
BD2CAB7E
3C7C1A99
BD696D62
BD444B9D
3BAB7B03
3C76EBA6
3DC26877
3E2FFF05
3E908CD7
3EA5D0BC
3DBD3C4C
3DF649F0
BE0B4B85
BDD0C53E
B7E9D9DB
3D542DB2
BCA506EE
3D3606E4
3DE2695F
3D949F45
3E167C62
3E9A9D1B
3E50BD9C
3EB1E4B6
3D4592E8
3CC0E504
BE2892C8
BD93D56A
3C5F4926
BD754106
BC73A037
3D9B08F2
3DEE89A0
3E58887F
3E806883
3DA0DC04
3E56AF94
3E575468
3EA35689
3D67447A
BCE5DF4D
BCA15F09
3C057278
BD4435F7
BC91F078
BD311AA8
BD84FC33
3D3F05A1
3E0EF049
3D88E837
3DC26F4A
3E053327
3DBFA306
BC22EB16
3D20BFBB
BC262F64
BD3D89BB
3BE071F8

